-26.8627;0.2887;-42.4261;-56.2852;-39.3249;-16.8077;
-26.7253;-1.6979;-42.5217;-51.7448;-38.3202;-10.4962;
-26.6545;-1.0710;-41.2982;-54.8591;-41.3740;-8.1726;
-27.4568;-0.4100;-42.9865;-56.0498;-43.6596;-15.1720;
-27.3218;-1.7773;-42.2708;-50.8702;-42.9991;-10.7084;
-28.5559;-0.6781;-41.6744;-54.6489;-45.0136;-9.0577;
-29.0150;-0.7855;-43.0244;-56.9452;-49.3221;-16.2752;
-28.9067;-2.6638;-43.2795;-51.7163;-48.0000;-10.5924;
-29.2916;-2.2095;-42.4288;-54.7111;-51.0356;-8.7538;
-30.1293;-4.0824;-42.6178;-56.6062;-50.0009;-16.8686;
-29.9822;-5.4251;-43.3911;-53.4440;-50.3394;-12.8214;
-30.4408;-4.7968;-40.5339;-56.8726;-51.0009;-12.3506;
-32.6192;-5.7064;-43.0903;-57.6396;-51.6596;-17.6137;
-32.1165;-6.6482;-43.8097;-55.3577;-51.3385;-15.4394;
-32.2003;-5.7897;-43.9397;-56.4081;-54.3549;-14.2038;
-36.0300;-8.3578;-44.4409;-59.2014;-51.3394;-18.0430;
-35.7698;-9.6019;-45.6142;-55.9092;-52.6606;-16.8013;
-35.8182;-11.2103;-45.5967;-59.7100;-55.6934;-16.3452;
-46.1820;-14.1033;-48.0340;-61.9734;-56.6779;-20.8990;
-45.8703;-14.5424;-51.8453;-58.1589;-56.6779;-22.2915;
-48.6065;-16.9652;-50.8122;-63.9518;-57.9827;-21.8806;
-60.9839;-26.2314;-52.3580;-70.2600;-60.9981;-25.1994;
-61.6208;-33.0888;-58.6302;-70.1068;-60.3375;-28.8983;
-62.3948;-41.2079;-59.2461;-53.6517;-62.3521;-12.8666;
-89.9008;-48.2504;-57.1786;-82.3933;-72.3886;-29.7987;
-52.7755;-7.9752;-73.3984;-63.4789;-70.7280;-46.0341;
-93.3234;-15.1731;-86.9615;-78.4234;-77.6732;-51.6332;
-95.5719;-75.5167;-78.4566;-94.9822;-90.6999;-56.0090;
-98.1794;2.3438;-102.6014;-109.8771;-89.3778;-80.8326;
-99.3411;-5.2765;-50.3289;-21.4151;-94.1001;-53.9908;
-101.4878;-92.5971;-91.9956;-104.9503;-97.0674;-70.8335;
-102.2738;-20.0238;-49.9407;-42.8502;-96.7280;-99.3931;
-102.9650;-20.6634;77.1758;62.5253;-99.0856;98.2666;
-99.1999;-95.0888;-93.5438;-95.0096;-104.6807;-79.2716;
-100.6961;71.0699;-87.6412;10.1296;-104.0510;-109.5915;
-99.5409;112.3060;101.7439;77.0853;-103.0164;125.2897;
-89.0136;-95.6663;-85.5286;-88.4537;-106.3586;-75.8268;
-91.0894;69.6184;-83.3510;-8.3238;-105.3595;-107.0803;
-90.7616;106.1818;104.6068;83.4614;-108.3366;148.8507;
-84.1453;-100.8285;-81.2719;-101.3226;-108.3722;-59.3078;
-85.3251;-26.0918;-109.9968;-61.6062;-105.6634;-88.7044;
-85.5796;107.0854;14.7982;77.6343;-108.0693;-11.6433;
-71.1959;-75.6432;-73.2456;-79.5359;-91.4489;-50.0865;
-70.8330;11.4610;-95.0737;-96.5543;-90.0950;-71.1624;
-73.0022;1.6028;-71.1327;-53.4040;-94.0767;-35.3258;
-58.3891;-49.1335;-63.0400;-75.5440;-69.6999;-37.6149;
-57.7621;-59.4639;-75.3046;-61.3975;-66.6634;-50.4194;
-60.3139;-15.0050;-79.0238;-74.8630;-71.9846;-70.2449;
-48.5809;-25.3372;-62.1776;-55.2272;-60.0337;-33.3216;
-48.5813;-24.0122;-64.4420;-57.0932;-59.3567;-39.7749;
-51.6107;-30.0096;-66.8862;-65.5149;-60.0183;-45.7277;
-43.7945;-15.7166;-57.4699;-50.1330;-58.3394;-30.3284;
-43.3126;-16.4915;-61.3101;-50.8924;-57.3394;-31.6634;
-45.5349;-17.0447;-61.7019;-54.8809;-61.3240;-33.5013;
-39.5440;-10.4173;-56.2090;-44.5811;-56.6442;-26.5891;
-38.6341;-11.0198;-56.7684;-43.3912;-55.3722;-26.9833;
-43.0157;-11.6103;-56.7908;-46.1323;-57.2884;-26.0718;
-37.9079;-7.4740;-52.9853;-42.9883;-56.0164;-24.3448;
-37.3316;-8.2158;-52.8651;-41.2261;-54.6615;-23.3383;
-40.7409;-7.7643;-52.2158;-41.7353;-56.3404;-22.4294;
-37.2541;-5.1034;-50.9562;-41.1365;-55.9972;-23.5359;
-37.1787;-6.3845;-50.6785;-39.8608;-52.6433;-21.0287;
-39.5351;-4.8532;-50.3998;-40.3879;-57.3066;-20.5778;
-36.0674;-2.1085;-49.4667;-39.7392;-54.6606;-21.6810;
-35.1009;-4.6856;-49.4713;-37.9668;-53.3394;-20.0926;
-38.3997;-4.2533;-47.8615;-38.6894;-56.9644;-18.2405;
-36.5262;-1.5700;-46.1269;-37.8366;-54.6788;-21.8776;
-34.8251;-2.9162;-46.1442;-35.1279;-54.3567;-18.6126;
-38.6013;-2.3420;-46.6362;-37.4321;-55.6451;-19.4102;
-34.9970;-1.9059;-46.8998;-36.8826;-54.6278;-22.2388;
-34.7351;-2.8064;-45.6962;-33.4091;-52.6779;-18.6994;
-37.2164;-3.3160;-44.0157;-34.5604;-54.6105;-17.5532;
-28.8477;-1.0886;-44.1117;-58.3017;-44.6779;-18.1395;
-28.7059;-3.2814;-43.6919;-54.5101;-43.3212;-10.1244;
-30.7543;-2.9462;-43.9077;-56.7178;-42.3558;-10.1702;
-28.8477;-1.2954;-43.7166;-57.3540;-48.9827;-16.2019;
-28.2297;-2.4535;-43.5456;-53.0545;-49.3212;-10.3812;
-29.7178;-1.7350;-42.4610;-54.7384;-48.9836;-8.6689;
-30.3215;-3.5158;-43.0986;-58.9557;-50.0009;-15.6882;
-30.8582;-4.2513;-44.7159;-53.7737;-50.0000;-11.6424;
-31.1396;-5.0344;-42.3361;-57.2860;-52.7135;-9.2288;
-31.7120;-6.4094;-44.8134;-59.8354;-50.6779;-16.9998;
-31.6034;-7.7954;-44.3996;-55.8977;-51.0173;-15.1827;
-31.5856;-7.3794;-44.6253;-59.4116;-52.3740;-13.1400;
-42.0661;-12.4656;-45.1860;-61.6135;-52.6587;-19.5086;
-41.5361;-12.2394;-47.2076;-58.1459;-53.3549;-19.2624;
-42.8187;-10.8738;-46.8192;-61.5964;-54.3212;-19.9304;
-63.5891;-25.0875;-47.3227;-66.2423;-58.6606;-24.5631;
-63.8999;-35.4244;-55.8876;-65.4930;-57.6606;-29.3889;
-64.6289;-42.9677;-56.3636;-71.8229;-62.6751;-16.2225;
-67.0963;-60.9695;-62.5433;-86.5827;-88.3857;-54.8466;
-33.0557;20.6684;-84.1626;-93.6877;-86.6896;-80.6790;
-71.7287;6.5284;-100.9177;-64.0949;-91.4195;-54.9395;
-8.5919;-87.3385;-110.9809;-107.8844;-104.4077;-83.2686;
-12.1088;85.1463;63.1486;-22.0059;-107.9846;-115.5490;
-9.2087;105.7544;90.8149;76.2149;-104.1020;134.0184;
-34.4856;-162.3145;-85.2176;-56.5265;-123.3539;-75.8618;
-38.6485;136.0388;-54.6521;109.0755;-40.0043;-88.9195;
-37.5378;87.6417;72.8751;60.7514;-120.6597;137.5478;
-87.8681;-143.9626;-74.1221;-50.8799;125.3567;-69.3378;
-93.5302;130.7291;-144.1103;84.4944;118.7289;-103.8221;
-93.5345;94.9842;113.4871;61.5067;121.7626;155.3687;
-81.3774;-98.3063;-89.9909;-107.8502;-120.6433;-84.0421;
-84.8873;62.8837;-49.8199;49.5353;-40.6686;-118.6469;
-84.4004;96.3857;98.0304;82.5699;-40.4401;136.4782;
-76.9597;-95.9947;-87.6698;-104.9699;-117.6751;-89.4049;
-80.9180;101.1600;-90.3896;19.7753;41.1451;-124.1115;
-80.6640;81.9444;99.8990;82.3930;-125.2884;130.5244;
-81.2453;-56.9731;-85.1718;-103.2708;-120.6259;-86.3608;
-84.1211;-35.9881;-10.3407;48.4296;125.3558;-122.7917;
-82.8972;114.6607;97.5917;82.1956;-124.9836;135.9335;
-84.6972;-119.7868;-96.1932;-47.6884;-125.0519;-82.4395;
-87.5859;-152.0820;20.7475;-2.8087;125.3394;-119.3123;
-87.7617;114.8806;89.6043;58.0949;-40.1606;142.6134;
-90.9546;-154.6773;-92.7482;-54.4295;-122.0547;-89.7982;
-92.0905;56.0619;-37.6778;89.6577;-36.5201;-105.5914;
-91.4374;82.8678;94.6626;64.7446;-121.6807;133.8154;
-34.9101;-99.9081;-82.1192;-96.0543;-106.3895;-79.9488;
-40.0797;145.7635;-114.6015;122.5245;-110.7116;-93.1656;
-39.1066;85.5702;106.3487;52.9771;-106.6587;125.2107;
-88.0641;-116.2427;-89.4115;-37.9236;-102.0000;-65.0236;
-88.9387;155.1757;-119.1588;27.7181;-102.9691;-96.9043;
-90.3759;86.3618;122.8067;21.9273;-100.7107;152.2044;
-66.5536;-50.3812;-68.4440;-64.1171;-76.3787;-47.9786;
-67.7439;-14.7275;-83.1525;-78.0415;-73.0749;-69.9233;
-74.1094;-15.4748;-91.7909;-50.4966;-76.6980;-55.9302;
-50.2149;-25.5718;-63.0290;-50.5502;-63.0009;-39.3646;
-49.9661;-25.7813;-67.7464;-52.2864;-62.0000;-45.0648;
-53.0460;-28.5209;-66.1158;-58.9475;-67.0220;-53.4388;
-44.9443;-13.8495;-60.9013;-46.6655;-59.3221;-30.9813;
-45.1519;-14.2182;-62.5995;-45.4203;-59.6952;-32.0420;
-47.0045;-15.5896;-61.9219;-48.5788;-62.0346;-33.3731;
-40.6057;-8.7127;-55.0538;-45.3447;-57.3558;-26.0486;
-40.1307;-10.4223;-56.7249;-43.7592;-56.6952;-25.7310;
-43.0562;-8.0757;-55.1170;-46.3830;-58.6278;-24.4774;
-38.5040;-6.8310;-52.9732;-41.3102;-55.6606;-24.3596;
-37.2050;-8.4273;-53.7422;-38.4443;-55.3221;-22.7913;
-41.5372;-8.8052;-52.5510;-40.1150;-57.9991;-21.8039;
-35.8132;-2.8531;-48.9281;-38.2648;-55.6451;-24.6441;
-34.3484;-6.0823;-49.3485;-35.9247;-54.3385;-21.4677;
-39.6853;-4.8677;-47.0784;-37.4184;-57.7125;-20.5156;
-36.5104;-2.9487;-48.6656;-36.7615;-56.6442;-22.7562;
-35.5290;-6.1223;-46.6819;-33.5537;-54.6779;-20.2797;
-38.3351;-4.5840;-45.1656;-34.3009;-58.6451;-19.4516;
-29.8892;-3.2010;-44.6077;-59.2790;-49.0000;-16.0539;
-29.9131;-4.7054;-44.7031;-55.8156;-48.3230;-10.8324;
-29.7417;-3.2568;-43.5425;-59.8807;-50.0145;-10.4589;
-29.7403;-5.1774;-44.4465;-61.6799;-49.9991;-17.8153;
-29.7577;-5.9810;-44.1788;-56.8058;-49.9991;-11.6784;
-29.6909;-4.4890;-43.8221;-60.5861;-49.9991;-11.7717;
-33.1066;-8.1506;-44.5167;-59.5541;-50.3394;-16.6169;
-33.1464;-9.5231;-45.5270;-56.8764;-51.3549;-15.0624;
-32.7072;-9.3608;-45.2143;-59.4387;-51.6943;-11.9474;
-45.9137;-14.3637;-48.9111;-62.6778;-54.6770;-18.5455;
-46.0691;-15.5011;-49.3783;-58.6598;-53.3394;-19.5416;
-47.1110;-14.9787;-48.3634;-63.1104;-55.3057;-21.7157;
-80.1034;-38.3339;-55.5155;-75.0165;-62.9963;-20.5325;
-45.1753;1.1486;-64.8328;-74.3640;-64.6742;-33.3303;
-84.6295;-5.5617;-72.7737;-85.6125;-67.6896;-41.0091;
-110.9029;-84.4892;-93.0706;-95.8083;-93.2711;-90.8934;
-75.2254;41.6918;-6.2196;-82.7858;-99.3712;-123.3242;
-74.3473;107.4387;48.7467;11.7348;-99.6278;130.8221;
-93.3644;-129.3862;-89.6791;-87.0075;-92.4321;-78.1878;
-97.9562;27.0831;-15.0524;61.5765;-103.0099;-89.5542;
-98.9150;101.9235;104.2497;60.1366;-101.2810;144.3834;
-85.0928;-75.8604;-90.3244;-111.8124;-122.6788;-79.0776;
-91.0106;55.8727;-49.9415;107.7571;39.0562;-115.1678;
-88.2686;89.1491;95.6014;80.5761;38.7729;140.5445;
-85.4639;-72.1920;-86.5829;-73.5767;-114.3385;-68.4120;
-93.8433;-34.0052;-84.1035;43.3162;-122.3403;-103.4027;
-92.7484;119.0217;96.9489;73.7806;-40.1788;146.5463;
-84.8529;-84.9527;-96.5144;-108.6967;-114.9855;-65.2153;
-89.3131;155.5497;8.2012;94.8429;-124.6788;-104.3515;
-90.7616;95.5121;87.0568;52.5924;-123.0028;147.9918;
-84.2294;-89.7882;-87.5139;-92.8294;-116.9827;-65.2072;
-85.4419;116.2244;-121.2171;128.5404;-124.0328;-102.5807;
-88.3520;104.5932;91.7746;75.8657;40.7687;151.4284;
-78.9215;-48.9119;-92.4751;-88.1507;-115.0154;-68.6734;
-82.0854;-122.2814;-54.3034;143.2560;-124.0000;-104.3750;
-81.3764;128.5877;85.5904;67.9053;-125.3731;154.1589;
-77.1700;-69.0786;-85.0020;-105.9343;-115.6606;-72.2585;
-80.7440;-22.8754;-12.2991;56.3276;-40.7023;-84.6451;
-80.4455;107.3052;91.1662;75.4695;-38.5009;151.7505;
-74.8461;-130.4648;-91.6060;-15.0918;-116.3577;-88.2924;
-74.6165;-17.3296;-27.8213;-47.3132;-123.9827;-43.1422;
-76.6523;101.9574;87.9614;55.6113;-39.7360;136.1479;
-76.9306;-67.9054;-91.4617;-104.0927;-115.6788;-88.7206;
-79.0478;-7.6117;-68.5781;13.8907;-126.3221;-81.5930;
-78.8573;118.8139;97.4348;74.7966;-40.7369;135.4502;
-82.0097;-117.4199;-84.4548;-70.0779;-116.9972;-86.3883;
-84.1986;118.5019;-64.7806;-26.9736;-125.6779;-29.4749;
-85.3062;92.0438;92.2759;77.2547;-40.3629;139.7373;
-92.1049;-70.1616;-85.3536;-51.8211;-121.9654;-89.1625;
-95.1050;106.2960;-81.4555;-5.8540;123.7116;-42.7558;
-94.9094;81.7637;94.6593;50.6435;-47.0506;139.8305;
-95.3831;-87.7530;-74.8008;-98.0987;-113.3268;-102.0635;
-97.2364;121.6614;-124.0475;90.3675;-115.3970;-55.0782;
-97.1931;91.6377;110.0890;39.3466;-120.0711;123.8197;
-89.5918;-97.9259;-79.8884;-78.9353;-97.9818;-61.6923;
-89.4779;23.9932;-104.6554;-15.6735;-102.3258;-93.7432;
-95.7828;83.2093;-20.1664;23.3633;-98.6788;79.2422;
-58.3520;-36.4789;-68.7372;-59.7358;-69.3422;-40.5249;
-58.5334;-37.2027;-73.8062;-65.9832;-68.0154;-56.4448;
-62.7973;-40.2536;-75.2551;-78.9115;-75.6297;-56.0219;
-46.8831;-20.0547;-63.5691;-47.4374;-63.6943;-35.5963;
-46.4923;-20.3252;-64.2103;-46.9453;-62.6615;-37.8674;
-48.5912;-19.1542;-63.5681;-49.1069;-66.3249;-43.0384;
-41.6707;-11.0172;-56.4043;-40.8478;-61.3057;-29.9853;
-40.7134;-11.4800;-58.6309;-41.6813;-58.6770;-30.4064;
-45.0949;-12.1495;-57.7822;-42.3224;-61.3230;-28.6519;
-38.4067;-8.3942;-53.3854;-40.4080;-59.0154;-25.6301;
-37.3660;-7.9914;-52.3770;-37.7222;-57.0000;-24.9563;
-39.4858;-8.6920;-51.9177;-39.0333;-59.3230;-24.6956;
-38.3280;-4.1402;-50.3068;-39.0403;-58.0318;-25.3505;
-37.8570;-7.5369;-50.5999;-34.7961;-56.0009;-21.6484;
-39.5144;-8.0277;-48.4545;-36.4057;-57.3549;-21.5086;
-30.6041;-5.5570;-44.4663;-61.2493;-50.0164;-17.1264;
-30.4536;-6.5954;-45.6676;-56.9305;-50.0164;-12.8401;
-30.2058;-6.0652;-44.3917;-60.9765;-49.6788;-12.1087;
-32.7924;-6.8688;-45.9796;-62.2976;-49.3212;-17.9585;
-33.0818;-7.7864;-45.7026;-58.8421;-49.6625;-14.0867;
-32.7415;-5.9826;-45.2532;-62.7031;-51.0117;-13.3094;
-44.5765;-13.0196;-49.8038;-64.1965;-54.0164;-18.0239;
-45.1742;-13.0103;-49.9508;-59.2857;-54.0000;-19.4840;
-46.7539;-11.8548;-50.2994;-63.9334;-57.6250;-22.2928;
-65.9197;-51.3540;-55.6340;-76.4442;-65.3366;-27.2990;
-34.2102;-8.4426;-70.5073;-76.4472;-65.6924;-47.6906;
-36.8119;-15.5650;-76.5166;-85.5635;-67.3020;-65.4871;
-106.5884;-117.3714;-75.3690;-89.2360;-106.6513;-88.7753;
-41.5939;105.6519;47.6223;-46.3313;-110.3282;-81.5242;
-78.3307;83.4599;86.5840;21.8412;-108.2800;143.5122;
-83.1754;-91.3074;-77.0721;-113.5054;-124.2875;-74.0102;
-88.1049;149.4182;-122.6195;131.3715;124.9827;-110.3402;
-88.2370;79.4719;113.7508;77.4262;123.9836;147.5514;
-86.0247;-66.3394;-91.6958;-66.8741;-116.6451;-68.4252;
-91.9988;-73.6618;55.3682;65.7734;-39.8230;-105.0205;
-90.6999;120.5429;89.9473;59.2235;-124.0510;146.7741;
-87.2755;-66.4130;-92.6863;-62.8192;-118.7097;-63.2374;
-95.2977;120.4661;85.9488;6.0705;-42.1287;-102.4782;
-92.6097;102.5295;89.5255;50.2809;-126.0019;151.4422;
-87.6417;-90.6253;-93.3498;-103.2906;-116.3230;-66.9632;
-95.9314;104.8162;53.2783;97.2988;-125.6461;-104.3079;
-93.9619;84.9795;85.5276;75.1142;-40.3975;149.6545;
-89.0371;-55.7859;-91.3613;-84.2012;-116.6615;-83.4577;
-96.0126;-113.9030;24.3462;-20.3405;-126.9836;-95.3877;
-95.1585;119.6601;85.6923;47.8599;-40.3947;143.9919;
-83.8610;-84.2598;-97.5643;-69.0687;-116.0000;-95.3799;
-89.9542;81.7520;20.8482;81.7061;-40.7884;4.8065;
-89.0408;110.6981;90.4516;65.9464;-45.8296;151.6492;
-85.3256;-93.3895;-93.2128;-118.6853;-117.3240;-80.6629;
-85.6807;63.0032;48.2116;57.3662;-125.3394;4.3059;
-89.0911;96.1982;85.3809;68.0134;-125.6269;129.7558;
-83.0274;-43.1892;-89.8446;-85.1286;-119.0501;-103.9060;
-87.7423;-59.8391;17.2399;-47.1138;-46.1863;2.1981;
-87.0640;122.8278;82.8641;65.3206;40.0918;130.5346;
-77.3702;-153.7225;-95.7121;-56.5406;-116.0346;-104.0337;
-78.7130;-61.1538;-35.7388;-27.0012;-121.6770;15.6941;
-80.3069;109.0185;87.6526;69.1367;-43.7978;140.9117;
-90.4616;-117.7086;-96.3967;-78.4315;-114.9691;-110.7131;
-93.5355;69.8556;-106.6033;0.5979;-41.0080;91.1777;
-94.1293;101.6229;95.2884;46.6013;-125.3366;127.0878;
-79.9609;-35.2595;-92.5652;-67.6149;-118.0009;-92.1711;
-82.8499;94.1868;-140.9645;124.4772;-41.0080;27.8357;
-83.9544;80.4274;89.3363;66.6055;-40.0398;137.2922;
-84.4218;-93.7327;-81.4098;-85.9599;-118.3558;-91.3945;
-90.6167;62.2368;-154.7015;55.9506;-40.1306;-20.1953;
-89.8203;117.9445;95.2367;29.4512;37.4681;137.5444;
-97.2571;-120.0611;-81.8608;-60.5368;-117.3057;-99.0215;
-101.1300;90.3535;-122.0617;67.6526;-42.3629;72.0314;
-99.9950;78.5365;93.0978;41.6193;36.5037;129.4694;
-103.2433;-90.6446;-82.3457;-78.7619;-121.9546;-88.0964;
-107.3626;113.3768;-103.0538;7.4531;42.0890;-33.7717;
-106.5819;78.6129;93.9958;82.8211;37.1508;137.7649;
-96.0867;-119.7704;-83.3009;-90.1764;-105.6934;-72.3756;
-96.9559;201.4387;-115.7062;13.2007;-107.3549;-104.9940;
-101.6149;81.2564;94.4305;68.9948;-107.3895;110.6894;
-60.5398;-40.2150;-71.1472;-58.6437;-75.6990;-46.9851;
-59.2165;-40.0221;-75.9014;-68.8974;-76.6681;-65.9112;
-66.5623;-41.9105;-81.3384;-61.7272;-86.0028;-48.1427;
-47.9322;-21.2051;-64.7396;-49.4072;-66.0000;-40.5872;
-47.2916;-21.3564;-67.1822;-48.4673;-65.6615;-43.0617;
-50.3594;-26.0298;-65.9980;-52.1997;-67.6971;-48.1924;
-41.3792;-11.5185;-58.8739;-43.2624;-61.3558;-31.8031;
-40.6311;-14.0179;-58.8747;-42.2439;-60.3394;-31.4679;
-44.4160;-13.0491;-58.2950;-43.9718;-61.6962;-30.6537;
-40.5142;-8.1658;-54.5078;-40.6047;-57.3558;-28.4824;
-40.1060;-10.7870;-53.9443;-38.6765;-57.0000;-27.0306;
-41.9084;-9.0567;-53.2289;-39.7022;-61.9827;-25.3501;
-33.5398;-7.1751;-45.4330;-64.0474;-50.6962;-18.1251;
-33.0150;-9.1560;-46.4445;-59.0072;-48.9827;-15.1933;
-34.4765;-8.5811;-45.7928;-61.0966;-50.6934;-14.1160;
-43.9045;-11.1437;-46.6613;-64.9824;-52.3221;-20.0871;
-45.6030;-10.9048;-49.0499;-59.8562;-52.6596;-20.0592;
-45.3792;-10.0971;-49.1750;-66.2158;-56.7107;-22.1954;
-75.4286;-36.9721;-56.7667;-72.5640;-65.9944;-30.6998;
-79.6627;-47.2900;-63.5049;-69.5998;-63.6423;-29.1754;
-79.6496;3.3060;-65.3313;-77.6628;-70.6541;-68.3107;
-78.5413;-64.5624;-77.3838;-88.1076;-106.9743;-83.2664;
23.6739;96.5422;43.3127;-100.1320;-113.7205;-133.8965;
-7.7567;79.6590;85.2095;49.3877;-111.6704;124.3066;
-82.4660;-85.4093;-88.9116;-92.8806;-40.1835;-72.3649;
-90.6138;149.4283;-85.0430;135.6822;117.9616;-87.7941;
-89.3598;83.9232;101.8205;77.5014;124.6269;143.2761;
-84.1010;-78.0116;-81.0263;-87.0239;-115.0328;-72.6283;
-89.6091;42.8784;-117.6610;-34.9077;44.5257;-89.5483;
-91.7628;103.2347;99.7962;66.2827;-46.1690;142.3082;
-85.5848;-95.1068;-88.6343;-119.6613;-113.9672;-68.4959;
-93.9390;96.4459;16.4720;133.5827;-125.9981;-106.4491;
-92.9732;77.2763;90.9951;62.1551;-122.9654;145.5492;
-85.5945;-63.6436;-93.7618;-104.8037;-112.6451;-82.7745;
-92.6026;-75.9376;18.7231;25.5520;-123.6615;-54.6323;
-92.4682;111.2768;86.2125;69.7382;-118.6597;149.6720;
-89.1900;-86.2180;-97.7745;-109.7352;-113.0154;-98.1346;
-96.5023;12.6705;43.7774;71.4914;-121.3712;-95.8678;
-93.7760;100.4509;82.3630;62.4770;-120.6259;52.6382;
-86.8617;-100.3811;-85.0572;-45.7785;-114.3577;-93.1465;
-90.4510;64.9332;22.4530;103.4838;-123.9981;-98.0309;
-92.7576;75.4053;84.2930;71.9117;-38.3619;-25.5643;
-86.0025;-105.8175;-82.8611;-99.3922;-117.6624;-93.3980;
-88.5245;-97.6156;-78.5439;77.3166;126.6615;-99.5841;
-91.0591;104.8140;85.4140;46.2034;39.0417;-80.7360;
-83.7153;-157.7951;-122.7123;-96.6106;-119.6760;-95.3753;
-86.9622;-85.5385;7.9776;77.4313;125.3240;-98.9456;
-87.5795;103.0163;70.0569;34.1444;124.6615;-97.1394;
-88.1071;-109.2776;-97.5930;-128.6682;-115.9663;-97.1545;
-92.3631;74.7636;-2.8792;45.6108;-40.6859;-99.7193;
-92.9289;76.1023;73.5323;73.4284;-124.9654;-97.6778;
-88.2709;-100.1615;-92.7389;-26.4443;-115.9855;-99.2341;
-94.3287;109.5954;-6.3349;-1.2611;40.7884;-82.3711;
-98.0284;87.1767;80.5636;64.8915;-39.1297;-81.1756;
-83.3140;-92.8681;-98.3511;-52.1990;-113.0665;-85.0678;
-88.3835;80.6297;-22.1238;-14.3382;-121.6943;-69.7040;
-89.1372;96.3951;71.3569;23.4711;-123.3403;-94.5382;
-84.5352;-121.8326;-101.9317;-93.3375;-113.6096;-112.1977;
-88.0142;98.4805;-20.2179;-28.9045;-124.6615;27.6621;
-91.2693;88.6753;92.2824;78.9117;-123.6751;53.0081;
-94.0636;-19.7745;-81.2788;-41.5557;-117.3357;-108.2770;
-97.5759;34.0885;-116.4674;-31.8557;-126.6442;-7.6153;
-97.4778;85.3758;88.7590;76.4375;41.0407;137.0958;
-102.3136;-122.6481;-103.8564;-72.2780;-124.0693;-94.7896;
-105.8866;61.3217;-54.0782;-33.8070;125.6597;32.9150;
-105.6531;103.5263;89.0658;65.9961;123.3366;138.3812;
-102.1791;-129.0191;-111.2386;-91.9187;-121.6742;-66.3588;
-104.0143;86.3334;46.6986;-41.3650;125.6461;-30.3080;
-106.2844;81.3937;83.8256;58.0708;-42.3638;144.3468;
-107.2395;-99.1554;-98.2085;-96.5769;-122.7116;-86.8573;
-110.4272;119.7927;-25.8301;19.4755;121.6952;-39.9302;
-109.3189;73.0733;91.6430;57.8896;117.6550;121.0493;
-97.2560;-110.9397;-76.8803;-82.4074;-109.4021;-75.2298;
-101.3591;208.3910;-105.0015;2.8112;-113.0609;-61.8947;
-103.3822;86.2316;-6.7540;61.6316;-111.7589;81.7586;
-59.5450;-40.7388;-74.3654;-47.6170;-75.6461;-47.8657;
-59.0208;-38.6678;-78.1276;-53.7488;-74.9663;-67.3412;
-63.3224;-40.0017;-77.6406;-72.6899;-81.9181;-73.3972;
-47.0667;-19.6807;-66.1615;-48.0168;-68.0028;-40.2370;
-45.7005;-19.9299;-65.9253;-47.6498;-68.0009;-43.5307;
-51.6565;-21.5902;-65.0325;-49.9013;-72.6788;-48.5614;
-42.7948;-12.0602;-59.8422;-45.7916;-62.7125;-32.8064;
-41.7012;-14.5599;-58.6452;-42.9858;-59.6615;-31.9775;
-45.7412;-14.2740;-58.4023;-44.9216;-62.6606;-32.3914;
-39.1603;-12.5438;-48.1026;-65.5815;-50.3530;-20.5435;
-39.2185;-12.6157;-47.7633;-61.7132;-53.0164;-19.2699;
-41.5942;-13.9540;-47.4745;-64.4106;-51.9644;-20.6037;
-65.4621;-23.3582;-52.6694;-68.2354;-58.6433;-29.1315;
-69.7658;-25.7724;-54.9298;-65.4993;-58.3038;-39.7198;
-69.4334;-29.5133;-54.4122;-70.7878;-58.3202;-36.4607;
-116.4973;-100.9574;-91.9471;-102.2271;-93.6597;-96.0745;
30.3236;101.2556;-58.6010;-7.6558;-96.6578;-131.5237;
-8.3390;-11.9584;82.4314;-33.7338;-95.3694;140.3607;
-85.1809;-73.2517;-84.6910;-99.8608;118.6541;-71.5031;
-98.4916;2.8305;-78.6177;139.9341;106.6194;-124.1492;
-91.0662;94.4531;105.3486;73.0474;111.9251;149.5162;
-81.2637;-114.6645;-89.4110;-89.8062;-116.4003;-71.5634;
-89.5543;112.5451;-155.1381;103.1340;40.3647;-89.8745;
-88.7796;78.1760;95.9346;59.4632;43.8469;145.5042;
-87.8806;-146.7884;-92.0748;-51.0911;-114.3385;-78.8562;
-93.1657;14.0127;-16.0120;39.2672;-126.0182;-70.2899;
-93.4735;98.7521;80.0199;68.8991;-125.3904;144.2914;
-88.3179;-161.6801;-92.8143;-75.6803;-114.0192;-67.4008;
-95.0150;90.0392;-31.0731;82.3162;-123.0337;-28.3472;
-93.9632;74.0825;77.2736;51.5332;-120.6615;132.0598;
-86.7587;-169.1188;-83.7061;-46.5033;-112.9818;-98.2504;
-94.7340;93.5982;-26.9805;63.2413;-121.3385;-85.5605;
-93.8909;63.4799;74.8776;48.2961;-123.0145;-34.7016;
-91.3637;-91.3390;-80.8167;-53.0792;-114.6934;-88.7819;
-98.5546;108.2992;6.5381;118.7209;-122.6597;-92.2790;
-96.7786;132.8203;97.8758;94.5592;-119.3240;-89.9658;
-95.7415;-106.0471;-101.0027;-114.1789;-115.3549;-89.7589;
-100.7829;-50.0006;23.5063;73.4714;-123.0173;-92.0049;
-98.2713;127.8360;78.6097;67.6534;-123.6952;-86.3695;
-86.5712;-149.4697;-87.9777;-53.3982;-115.3202;-92.5664;
-93.2493;122.4383;-52.7059;26.0230;-40.0244;-93.5764;
-93.6486;118.4649;100.5732;83.5464;42.1634;-90.6024;
-91.0071;-159.9926;-99.4430;-78.5568;-118.9663;-93.7657;
-96.9579;78.3855;32.1684;30.9244;-45.5248;-95.0335;
-97.0717;110.0443;89.3150;87.5059;-47.0169;-91.6733;
-90.7456;-63.9404;-96.6377;-132.5879;-120.9518;-92.1251;
-96.3191;-178.6211;-29.0857;6.9110;124.3221;-93.4812;
-95.2941;138.2061;93.0422;89.3525;122.6124;-90.7520;
-86.0215;-138.8179;-97.9862;-39.2967;-117.3076;-93.1014;
-94.5469;89.0425;82.0191;-59.3713;-44.8141;-94.4370;
-92.0147;98.4136;89.8128;72.4279;-124.9537;-91.3984;
-87.7954;-36.4061;-115.5194;-110.5496;-115.9818;-96.4175;
-95.6315;80.0462;11.3467;-28.7854;-39.0234;-100.9022;
-94.5016;76.0005;69.5701;68.8550;39.7523;-96.3802;
-83.5312;-39.3444;-107.6171;-95.2110;-124.3366;-96.6670;
-91.9222;-63.5161;-19.7402;69.7441;45.1863;-100.2318;
-90.5908;124.7161;81.4035;66.6320;43.1325;-96.6749;
-92.6928;-159.3140;-104.6906;-44.7968;-110.2720;-102.9096;
-102.9560;107.0552;-82.1161;-50.9185;-118.2884;-46.7397;
-98.6193;81.7143;77.8462;39.2177;-123.3394;-29.2710;
-91.3117;-145.4566;-98.8220;-54.8907;-119.3385;-64.9366;
-96.9494;62.0380;-155.5907;-22.7904;126.3221;20.1386;
-97.1608;95.1188;85.6267;74.7403;125.9836;104.2371;
-99.2529;-93.7152;-102.3047;-56.6959;-121.0000;-98.4550;
-102.6845;145.9836;56.5673;-48.6648;121.6278;34.8228;
-101.9693;88.3117;70.4575;70.3997;122.3193;136.9768;
-103.2187;-180.2242;-100.3426;-46.1619;-122.3539;-82.3540;
-106.7319;78.8551;36.8482;-60.3104;123.2875;68.1144;
-107.9040;71.4018;74.9327;60.4793;123.3403;133.1635;
-106.2764;-103.7785;-80.7467;-102.3424;-123.9372;-84.5317;
-110.4334;122.0746;-96.7232;-78.1056;37.0389;68.0014;
-111.3970;75.7790;98.2474;39.2010;30.1161;123.4468;
-93.4396;-92.4609;-84.8946;-59.1105;-39.3708;-55.7426;
-97.5793;-23.7731;-100.0190;-63.2441;38.1170;-59.1439;
-101.8377;92.8074;-94.6397;27.3525;-42.0296;61.3199;
-54.9794;-33.9237;-72.4264;-49.1643;-76.2575;-50.2204;
-55.0415;-33.7220;-75.1892;-54.3498;-71.3249;-65.2121;
-58.4661;-35.5562;-74.8784;-64.0861;-80.3249;-63.0077;
-47.5389;-18.0948;-63.7055;-51.2291;-64.3057;-41.0457;
-46.7742;-20.4068;-63.7444;-48.3959;-63.3057;-42.4457;
-48.4131;-22.2610;-63.2775;-52.1823;-68.3048;-46.1366;
-55.6576;-18.1250;-52.3168;-67.3463;-54.6596;-23.4815;
-20.1768;-17.9022;-54.2922;-63.2951;-54.9991;-25.2657;
-21.1987;-20.4813;-53.1801;-67.5727;-54.6606;-29.1943;
-91.1840;-57.6190;-62.1341;-90.2404;-75.9415;-51.2980;
-59.2730;-20.7614;-72.7784;-85.2138;-79.1962;-57.7478;
-95.0787;-34.5220;-78.1969;-70.4218;-80.5474;-44.1133;
-103.1383;-152.8540;-106.5785;-57.8350;33.1544;-110.1118;
-109.0544;109.4599;85.0790;89.3841;107.0814;-100.3030;
-110.0306;85.5026;91.3578;65.2954;115.9892;113.7951;
-83.8123;-154.3174;-94.7129;-79.7340;-117.6288;-78.5274;
-94.7847;126.6348;28.7339;128.1373;44.5248;-72.7320;
-92.8793;76.5155;88.6631;63.5141;-40.8740;142.1548;
-83.3253;-180.3277;-88.9617;-84.8643;-119.9490;-77.3194;
-92.0287;102.1240;-22.4980;90.8928;124.3567;-69.6558;
-91.4355;72.2892;92.8014;54.1429;-42.0417;145.8167;
-90.1596;-114.7984;-93.7535;-34.9318;-116.6952;-88.9862;
-96.6492;27.9521;120.3074;-69.8753;-41.1114;-51.2130;
-96.6025;66.0693;73.6346;49.9546;-38.7706;137.2767;
-90.2667;-179.0381;-95.4019;-13.9782;-117.0182;-86.6318;
-97.0060;131.6440;132.1305;94.8307;-126.3385;-93.5779;
-95.2677;59.3690;55.7429;7.9211;-119.6962;-56.4806;
-93.2979;-131.0889;-89.8309;19.6119;-119.3212;-92.5894;
-100.8923;105.7744;50.3597;96.9900;125.6423;-93.9398;
-99.4107;103.2828;81.4070;68.8701;-42.4672;-90.0513;
-89.3469;-150.5331;-87.5975;-29.4012;-114.0182;-87.3022;
-96.1293;85.5687;5.8099;113.4889;-124.0182;-89.1260;
-94.4472;113.6030;93.3124;85.6580;-118.4241;-87.1316;
-91.1826;-120.0334;-89.8228;-76.3597;-118.0154;-89.6710;
-98.6838;70.1400;-129.0908;10.9322;-126.6770;-92.9217;
-95.5933;96.8352;96.9380;79.9050;-122.7252;-87.4622;
-96.3921;-91.8199;-92.1914;-68.4026;-117.6615;-89.4287;
-104.6146;24.1120;-49.7544;-5.2169;-40.6859;-93.7762;
-101.4595;127.9054;94.6750;100.2841;-122.4087;-89.8950;
-87.7852;-171.1692;-109.8394;-96.3144;-118.3394;-92.0870;
-96.0379;57.0529;78.2011;41.8221;-124.9672;-94.2003;
-93.9527;98.0762;83.4416;68.3156;-121.2739;-89.8409;
-88.9221;-142.2157;-115.4942;-156.2107;-111.9836;-88.8477;
-96.6679;94.5791;121.7404;6.5760;-120.6615;-91.1521;
-94.7263;64.0394;63.5964;52.7790;-116.6952;-86.6002;
-83.5928;-139.5878;-126.2259;-54.9525;-119.6971;-91.9162;
-87.8462;-102.2568;83.3233;-47.8626;44.1873;-93.5927;
-87.3993;111.5250;65.0087;36.8280;-126.6442;-86.8213;
-88.5505;-178.1911;-118.0689;-36.4901;-123.7626;-99.8097;
-95.3355;62.0043;-24.1603;-34.9448;122.9691;-78.6672;
-92.6675;84.0515;69.4771;-16.4051;125.9991;-96.1317;
-97.4414;-136.1783;-86.4806;-36.6997;-119.3057;-99.6340;
-103.5498;44.3465;-15.7230;94.8582;40.6849;-80.1182;
-103.3589;76.8356;75.4452;46.5772;-43.8123;-76.1441;
-99.6313;-124.9921;-115.4986;-69.0736;-121.3530;-102.9918;
-105.8110;-29.3211;20.3015;-5.5572;41.0253;-63.6033;
-103.6709;98.9871;66.7751;28.8542;-40.3273;-79.9200;
-88.2410;-88.4787;-104.7467;-79.6732;-119.6816;-105.6136;
-95.7634;11.9400;12.9154;-59.1698;39.7739;-92.3874;
-94.6056;85.1444;72.6062;51.7140;-40.7032;-92.3797;
-90.2697;-191.7156;-110.6370;-64.3423;-119.6760;-101.8293;
-94.1013;112.7232;51.7468;-38.4878;40.1123;-16.6052;
-92.9316;86.4716;73.5987;71.0859;-42.3956;90.5402;
-100.0391;-186.5498;-99.4123;-44.8860;-119.9162;-98.8006;
-102.7268;89.3998;46.8277;-65.2916;-40.8057;2.5444;
-102.0776;79.9455;76.0722;57.6670;39.3811;135.3899;
-103.8840;110.4084;-105.0466;-59.9468;-35.8197;-73.1574;
-108.1817;69.7584;95.8317;-40.4204;117.9691;10.3424;
-107.7435;63.9849;75.2671;48.1865;118.3066;129.4822;
-103.5273;-115.8055;-82.3219;-102.9931;-112.6980;-104.8645;
-106.6842;101.6416;-128.8461;39.2429;-34.4574;-49.0446;
-107.3783;66.7925;112.1443;66.5686;-121.5824;125.7937;
-69.2383;-56.9176;-82.5865;-40.4712;-109.1760;-60.3990;
-69.8541;-54.7002;-88.8359;-56.5307;52.5207;-89.6090;
-73.1900;-97.1274;-102.1666;-76.6090;48.8474;47.6148;
-51.6360;-30.6446;-67.5159;-51.7180;-72.6461;-54.2262;
-50.9977;-30.8388;-70.4361;-51.1027;-68.9682;-60.2477;
-53.5744;-34.8768;-68.6531;-55.3517;-73.3076;-44.5931;
-63.8151;-26.2310;-54.5848;-70.6529;-58.6433;-31.8792;
-65.0168;-25.0142;-57.9309;-65.9200;-59.3038;-43.0488;
-67.0791;-26.9436;-57.1816;-70.9695;-58.6770;-45.3298;
-117.9693;-97.1930;-84.5104;-58.8520;-90.9307;-97.9310;
-4.3939;43.6715;-131.9964;-26.8616;-95.6105;-112.9077;
-40.2865;-17.9683;87.9781;2.5665;-99.6442;135.5143;
-90.6075;-161.2905;-89.6885;-61.4216;118.6259;-86.9858;
-104.9928;149.8770;-86.8508;115.9057;107.9443;-56.1130;
-98.1745;78.5540;94.1804;67.8391;113.3685;142.2905;
-89.1064;-165.2267;-101.6934;-64.3450;-113.9509;-85.4222;
-99.8390;85.4150;102.8703;99.4338;-39.8221;4.3082;
-96.2249;82.3585;79.3623;55.4094;38.3947;140.8902;
-86.7376;79.4607;-92.0892;-116.0311;-120.6451;-93.5312;
-95.5240;79.4869;51.7272;52.9413;125.0009;2.7268;
-92.9008;56.4398;79.0386;58.6730;-45.8305;145.1849;
-86.9545;-109.0267;-95.9324;-94.0476;-116.6751;-90.9623;
-96.9224;-40.1394;116.8490;115.3093;-125.6634;-77.0445;
-94.1206;132.8970;96.4106;108.4495;-41.6831;-23.2225;
-89.7812;-150.9247;-101.9176;-93.3041;-118.6606;-83.3276;
-98.4144;138.7258;146.8300;-41.5567;-125.9991;-83.3383;
-95.2948;110.7661;93.5211;118.8110;-123.2711;-83.4192;
-87.7480;83.6520;-101.4070;-82.6536;-119.9481;-91.1171;
-95.7682;119.9428;68.5851;-43.9380;123.2875;-93.0470;
-95.8823;95.9546;91.6761;87.3041;38.4321;-89.5485;
-84.7396;-27.8249;-99.1926;-82.0810;-121.0037;-91.2986;
-94.7085;113.0618;40.0258;-33.4815;124.3221;-92.4472;
-92.1040;112.7599;96.9073;97.4578;126.3558;-88.7824;
-86.8461;-167.9076;-131.8280;-103.1686;-119.7635;-87.4655;
-98.2302;-88.5069;-18.3393;-42.9690;46.0843;-89.0781;
-97.2062;101.3110;82.4655;49.0095;-45.8787;-83.7647;
-89.1951;-148.3540;-106.3066;-135.5178;-115.7308;-84.6137;
-95.3428;30.9372;-84.3278;88.3991;-123.9864;-86.2553;
-94.3592;66.4601;75.1290;38.1297;-35.9105;-81.7616;
-86.1497;-169.9733;-131.0692;-113.5294;37.4658;-84.1031;
-93.5244;-16.0019;42.5307;51.7722;117.9827;-83.2798;
-92.7137;88.0938;67.9779;46.5209;119.6943;-77.9222;
-96.5390;-173.6393;-128.5150;-122.0927;-118.0491;-83.8551;
-101.3475;16.3682;48.7546;46.3194;125.6461;-84.8999;
-100.5018;91.2758;69.1562;39.1492;-123.3212;-77.4148;
-85.5444;-123.2271;-129.0343;-107.6794;-119.6597;-90.4750;
-94.2252;79.6465;8.2147;86.6908;122.9663;-91.3783;
-92.9188;54.4293;68.1287;33.2362;-40.5173;-87.0843;
-89.0344;-134.5176;-98.6395;-33.6269;-119.9846;-91.0167;
-93.7333;2.6339;-44.8129;-26.0841;124.6779;-91.9141;
-93.7471;100.5583;71.2255;45.4335;-126.3895;-85.6250;
-86.0340;-157.1398;-108.1208;20.2256;-119.0637;-67.4700;
-93.3135;40.8133;100.2006;142.5106;39.3465;-68.1118;
-93.2578;104.5066;86.4571;80.6774;-40.4148;-63.9772;
-85.6211;-53.3063;-106.1988;-31.7524;-93.0259;-98.6134;
-91.8212;42.0258;97.8325;78.4480;-98.7656;-78.4646;
-93.0473;77.6090;74.0849;57.0747;-100.0568;-95.8838;
-94.3795;-148.6874;-110.6807;-64.9630;-116.0164;-100.9627;
-100.7117;22.1582;9.7648;-54.9895;-44.1517;-102.8595;
-101.0876;99.7072;68.2803;47.5370;-122.6259;-99.9886;
-82.7558;-88.8963;-117.5767;-105.6756;-114.4433;-102.6435;
-88.1036;81.0255;118.6278;-47.7190;-127.6779;-45.1165;
-88.9230;61.1042;64.0664;44.0904;38.4883;-74.3145;
-92.9015;-173.6656;-104.0962;-56.3272;-116.0318;-69.9616;
-100.9790;77.7230;38.5319;-70.0955;-126.6442;65.4300;
-98.0655;65.5719;76.9673;32.9620;44.1536;112.3088;
-101.0634;110.1026;-97.3483;-42.6039;-118.3230;-54.8332;
-103.6371;65.6779;-31.4535;-74.3310;124.9682;42.3602;
-104.1932;59.2173;81.8097;50.4510;119.2074;133.4256;
-102.8705;-172.4654;-91.1792;-68.4974;41.3638;-76.0894;
-104.9857;89.3128;-68.1194;-39.6708;120.0655;107.3781;
-108.8349;58.6104;97.1872;30.2572;117.3122;114.1653;
-101.1427;-106.5175;-92.0284;-59.9663;-36.2271;-97.7559;
-110.6902;161.9030;-105.6973;-19.9297;-42.2926;-56.0826;
-115.8938;115.2378;-61.2728;22.7726;-37.5445;21.7843;
-81.7101;-34.9472;-60.0655;-74.5016;-65.9289;-39.9508;
-52.7506;-39.0647;-61.2658;-70.3086;-65.6068;-45.5468;
-87.8889;-44.3884;-60.7063;-74.8899;-66.8961;-46.1760;
-109.5632;-108.2148;-107.3756;-81.7269;-112.5319;-101.3940;
-50.8076;81.8912;80.4098;76.9691;-117.8723;-71.1529;
-116.2900;60.1915;86.8568;75.3434;-114.8559;107.1774;
-94.1438;-122.7482;-98.1901;-85.2530;39.6676;-88.8812;
-103.8860;100.4419;71.0710;52.6992;116.1990;3.5228;
-100.3628;64.0509;86.7081;76.3765;117.9663;135.3438;
-95.7168;-106.9643;-100.9752;-58.3324;-116.9818;-90.9332;
-102.3215;-4.4154;78.2080;63.3711;-127.0173;-3.1049;
-100.1180;87.2227;77.1677;60.5072;-42.8239;132.8716;
-91.6115;224.7450;-101.7355;-94.9908;-120.7107;-57.9005;
-100.8623;67.2978;117.7488;43.8473;125.3403;75.6674;
-98.5019;56.6385;72.4033;51.6435;124.0491;112.1740;
-88.0282;-51.7537;-106.6631;-4.9499;-41.4499;-90.1798;
-96.1379;123.3896;108.5603;99.5905;123.6124;-92.3689;
-96.7469;95.9465;103.3873;104.0098;-42.0581;-90.1481;
-85.6407;-57.1503;-95.5993;-96.8769;-120.0173;-82.3609;
-94.9286;-47.0235;145.4676;35.3587;123.0182;-84.7825;
-91.7100;117.0152;100.8466;103.0842;42.1460;-78.7300;
-89.5365;106.0001;-103.9670;-100.3740;-123.6278;-85.7175;
-98.8852;74.4000;131.2028;-54.0106;122.3558;-85.4850;
-96.6159;85.1600;94.6887;96.5765;44.5257;-83.2174;
-92.0969;-68.9733;-124.7613;-100.1085;-121.7635;-80.5000;
-101.0844;76.4047;9.8061;-52.8028;122.2557;-83.4825;
-98.4225;57.0876;68.5525;46.4137;41.1208;-79.4260;
-93.2538;-115.6415;-121.0461;-122.9282;-119.6077;-83.2716;
-101.2347;81.0965;11.3633;89.2931;122.3895;-83.3067;
-98.9212;63.0042;68.6255;37.8262;124.3731;-78.6389;
-94.0782;-168.4003;-122.7373;-159.2665;-122.2730;-81.7621;
-101.0718;15.3436;82.9434;-10.0963;-42.7023;-82.4108;
-99.6043;84.6844;61.9034;46.8559;-40.1114;-96.9817;
-86.9640;-212.4853;-131.1442;-128.9692;-117.3904;-85.0916;
-93.2472;90.0661;117.9831;74.3018;-126.9991;-86.3490;
-95.3761;63.4070;59.7917;40.1879;-121.9335;-80.9596;
-89.0127;-127.4229;-138.2949;-110.0978;-121.0201;-90.3202;
-95.1980;15.0674;70.5484;36.2616;40.1269;-90.4375;
-96.5076;76.2596;55.5854;49.2290;-122.2519;-86.8536;
-89.2660;105.7051;-103.3004;-84.0696;-120.3202;-84.5542;
-99.1658;37.6031;28.0652;77.9461;124.3403;-88.3374;
-94.9778;72.4400;89.8117;67.6746;-43.8315;-82.0539;
-88.3702;-184.8304;-110.2273;-61.6997;-122.6934;-82.1328;
-95.9120;107.5250;99.9543;-24.2767;121.9846;-85.4198;
-94.0183;82.9253;85.6349;47.0461;-46.8305;-81.3940;
-105.1844;-165.1075;-97.0851;-69.6471;-120.3329;-82.1379;
-109.0644;113.9136;31.8076;90.5044;-125.9981;-84.1572;
-107.9920;113.2770;93.2217;102.6327;-38.4700;-79.0225;
-100.4929;0.9141;-103.6814;-100.7155;46.7641;-91.0518;
-104.8459;26.2986;-27.4957;87.0732;42.7959;-92.6556;
-104.2164;66.9388;84.0526;70.1305;45.4583;-89.7812;
-99.4049;-112.5546;-120.7353;-104.2812;-121.3567;-85.7055;
-103.4149;80.9237;-81.7589;-39.9348;45.5084;-86.5369;
-101.9222;52.9511;75.8049;62.8800;39.4508;-80.6770;
-91.9932;117.3254;-115.0464;-109.2640;-121.3066;-85.5635;
-102.3643;61.4143;-114.5776;-69.6892;39.4148;-87.4594;
-101.2618;52.4482;82.1260;40.1206;-45.4930;-83.8073;
-44.8997;-10.9523;-108.6052;-66.1860;-120.0519;-90.2924;
-15.1778;77.2604;-117.9535;16.4391;-125.3385;30.7963;
26.2694;60.6758;91.5389;48.3471;41.3965;59.6977;
56.9107;-2.5645;-106.2257;-80.8908;-118.6952;-39.0720;
51.0303;80.7245;-19.3138;-67.8967;-41.7884;73.9331;
51.2234;67.1748;94.3360;56.1743;121.7135;94.1586;
-109.7757;-196.3866;-102.8434;-64.8667;-119.6915;-67.7724;
-114.7069;74.4783;-3.2593;-68.7568;-42.7177;81.6521;
-115.4837;54.8495;94.5993;62.4921;39.7884;114.1393;
-106.2920;-43.1315;-95.4722;-72.0357;-106.2557;-92.2377;
-110.6906;150.9297;-139.0650;-24.6607;-112.6143;-10.6899;
-109.3724;57.0621;94.7899;97.0712;-110.8399;97.2141;
-86.7576;-51.4198;-65.2726;-89.7428;-79.1625;-54.3331;
-95.6765;-65.9379;-68.2610;-84.2598;-78.1452;-65.9938;
-96.7660;-75.7201;-69.1753;-68.4713;-79.7904;40.5143;
-100.7707;-81.0408;-100.8387;-9.2134;43.2911;-86.7143;
-115.6900;104.4048;75.3565;136.3985;31.7189;-31.7582;
-119.2881;62.2751;92.7847;79.1640;38.3594;86.7252;
-101.3491;-91.1961;-97.4057;-55.7224;-124.9855;-94.5133;
-108.8371;111.4736;18.8375;66.0412;117.3038;73.6808;
-110.5436;98.9378;83.9459;44.9434;120.0482;126.9991;
-99.3439;-24.1790;-98.5712;-70.7932;-116.9682;-78.9629;
-108.1355;87.6693;52.6004;66.2999;125.9836;41.6111;
-105.7454;77.1527;78.1400;66.0414;-124.9846;130.3932;
-96.3142;155.5054;-95.9666;-94.6824;-122.9972;-87.1658;
-104.9802;107.8792;44.7542;120.3375;124.0164;-11.2832;
-102.9259;51.5979;77.0957;38.0339;124.6461;-25.2977;
-93.3537;-114.8327;-110.9393;-115.2355;-124.6962;-83.0172;
-101.4573;-76.4238;84.5376;59.7952;118.9663;-84.7286;
-99.5897;132.4961;90.4837;87.9354;119.6971;-80.8757;
-90.5487;-147.3026;-128.4790;-108.2163;-124.0346;-79.7893;
-99.7879;83.2343;79.7303;37.0722;118.6114;-81.6646;
-97.8406;72.8125;72.1949;72.1645;123.9827;-78.4678;
-91.0307;-138.2649;-130.5826;-147.1499;-118.9855;-88.1300;
-99.4938;98.6450;122.0586;-67.9414;-45.1873;-89.7956;
-96.3446;61.9607;62.9482;63.9447;-123.6297;-86.3362;
-93.1079;-83.8116;-129.2300;-79.1552;-116.6962;-85.5714;
-101.9836;76.3308;123.5559;-43.2954;-125.9827;-86.7780;
-98.4756;50.9095;64.8166;23.7983;-120.6788;-83.7038;
-91.9696;135.8449;-130.3019;-151.3468;-117.6742;-87.4772;
-102.9293;57.7757;116.3948;92.6513;-40.4508;-88.3489;
-100.2496;45.1541;61.4791;44.1156;-119.9654;-83.0013;
-96.3006;136.9342;-125.6449;-100.0319;-118.9808;-85.3416;
-102.0275;67.9868;121.6694;-7.9382;-126.3066;-85.2900;
-101.3911;41.8030;62.6083;68.6081;-123.6259;-82.9366;
-89.0606;87.1709;-124.2938;-153.0654;-120.3539;-80.0984;
-98.0372;67.9085;44.5849;66.2271;-41.0581;-82.8559;
-98.6602;43.0428;65.0002;56.1730;-123.0173;-79.4413;
-92.9358;28.9650;-122.7099;-86.9263;41.0852;-101.8763;
-100.1676;72.1111;94.1876;77.4863;118.1892;-84.0178;
-98.6976;48.6179;79.8854;88.5378;40.3746;-102.2013;
-93.8464;-113.0948;-108.1163;-73.9455;-119.6606;-92.3246;
-100.7077;12.0125;133.0967;-2.8505;-38.4527;-95.5681;
-99.4119;97.6596;84.9156;85.5995;-118.6962;-90.7523;
-90.0348;-89.7249;-112.3413;-90.1760;-117.6606;-95.2574;
-99.0410;91.4526;-71.1805;-10.2953;-40.6859;-96.1215;
-100.9508;68.2617;91.7598;64.2627;-124.3184;-93.4135;
-98.7182;-185.4967;-103.2847;-95.8108;-117.6934;-81.0640;
-102.9256;53.2968;-67.4483;49.7373;40.5018;-83.1262;
-102.0068;77.9264;95.9747;67.3246;43.4757;-78.8849;
-105.0842;-204.3544;-117.5662;-66.9279;-119.6962;-79.5285;
-111.4297;94.0305;-51.4796;-42.0712;40.0080;-80.6593;
-111.2337;56.5890;74.0045;37.4525;46.1199;-76.5084;
-110.0695;1.6806;-105.8479;-53.7224;-118.0009;-84.7336;
-119.0100;90.1786;-45.4373;-31.2156;-40.6849;-85.3263;
-115.3195;81.6307;97.4281;78.3219;42.1517;-79.2924;
-98.1341;66.6747;-119.2373;-106.0089;-122.0028;-82.1779;
-104.2781;67.3310;-83.1108;-4.1555;-125.3057;-83.0880;
-106.9482;50.9073;70.6170;10.9191;-126.3394;-79.6143;
20.9986;69.1560;-106.6294;-102.3852;-121.6587;-81.0151;
54.1495;62.3809;-87.9868;37.3585;39.3638;-43.0842;
17.2677;54.5869;87.4023;68.8220;126.6606;-21.5269;
-103.6073;-140.0158;-96.5415;-46.6387;-123.0646;-42.4702;
-106.3724;77.0695;-48.3874;-37.9849;125.3221;77.5716;
-105.5290;68.7190;88.8306;76.3180;124.0346;104.3804;
-106.5755;-104.4968;-100.6286;-43.6435;-120.3731;-62.5993;
-110.1824;66.8502;-92.3690;48.9326;123.6597;97.6550;
-111.7851;57.8057;92.2936;72.5554;36.8413;107.0807;
-96.2959;-50.3470;-96.9112;-67.6316;-116.3249;-81.0091;
-100.1339;78.4510;-32.4004;-55.9888;-120.3249;55.2551;
-102.9673;59.1123;95.7987;77.2649;41.6995;121.2998;
-94.1154;-62.5565;-66.2904;-97.0432;-86.5165;-68.6376;
-100.3766;-86.7180;-72.7592;-93.0309;-88.8185;-82.8622;
-101.2293;-18.0545;-105.8772;-89.1182;-91.5127;134.7268;
-110.6014;-167.7712;-91.7368;-1.8476;35.5968;-89.1038;
-121.0637;90.5713;-90.9004;56.0661;26.9746;5.7355;
-119.4020;73.1680;93.7765;76.2475;27.0008;114.5239;
-110.4928;27.2288;-104.1370;-22.9792;-123.6962;-99.9520;
-115.6351;73.2158;122.6731;101.6012;117.9790;94.0664;
-112.3528;61.6059;79.9189;58.1093;119.6624;115.5159;
-103.6311;115.4464;-83.9657;-76.4578;-125.3413;-95.2535;
-111.9285;70.4919;-46.0051;106.2504;121.9354;53.6949;
-111.5712;59.1027;92.9537;60.7991;123.7107;119.7206;
-104.4225;169.8386;-116.1851;-149.5567;-124.0009;-105.4722;
-108.8729;84.3542;85.3165;70.3734;118.3558;-87.8616;
-108.4792;59.7608;68.6081;61.1771;120.9836;-91.7561;
-108.6468;-102.5826;-139.9854;-115.1889;-120.3895;-92.1946;
-114.4893;34.4777;114.8768;-59.1646;124.9827;-94.2482;
-112.5100;92.3506;75.3366;82.8763;124.3020;-88.9167;
-104.2335;-114.8560;-142.8359;-154.5167;-116.3750;-78.1773;
-111.1488;14.0338;77.2444;40.3311;126.0164;-78.3882;
-110.3157;91.8345;60.0714;41.5212;-123.0182;-73.5354;
-102.0637;-142.9456;-124.0934;-150.3895;-118.3712;-87.9759;
-111.2495;93.3002;57.1177;62.5688;-125.6779;-89.4062;
-107.4400;65.3365;76.3424;59.3622;-124.0346;-86.4049;
-99.6475;-138.1275;-130.8041;-101.5129;46.3381;-80.2332;
-109.5396;103.1929;82.5565;-46.1734;32.3236;-101.5191;
-102.5471;68.8724;69.4682;69.0982;38.6939;-100.0920;
-99.7085;-52.7540;-131.4557;-53.7886;38.1961;-80.8741;
-108.5028;90.0709;88.7071;-35.5127;110.6788;-98.4940;
-104.4542;67.8789;67.7558;58.5562;119.0000;-77.7024;
-99.0507;-41.9579;-121.3786;-76.5488;-124.6288;-75.8881;
-103.6617;86.6250;60.9944;88.9447;115.9836;-78.0740;
-102.6654;63.1835;78.0432;52.7579;121.1001;-72.7522;
-90.6828;-215.7348;-121.4363;-112.2576;-43.4911;-76.7536;
-99.8752;83.7185;-46.9276;-15.7132;117.9846;-78.8544;
-99.5606;63.3567;87.2787;57.7618;122.6288;-70.5276;
-96.9007;-105.1554;-118.7427;-122.8380;-44.4892;-89.5754;
-105.4478;71.1759;18.9088;75.4472;118.5932;-89.5633;
-102.7267;64.7618;77.3407;58.3435;121.6451;-86.0300;
-97.5274;134.6548;-106.1606;-85.6203;-126.6952;-68.2290;
-105.9375;57.8617;91.0653;21.2314;123.6105;-69.9287;
-104.1532;46.1352;78.7788;61.7406;35.7505;-65.7952;
-90.7297;109.2227;-108.1622;-96.1537;-123.0992;-78.3621;
-98.7778;52.7089;-144.6334;-49.0633;-42.3937;-82.1000;
-96.4841;44.6130;89.5887;77.2122;-38.7350;-77.1303;
-99.3234;-150.7101;-102.5913;-141.0835;-113.6086;-76.1713;
-104.3043;-22.9609;-142.0795;-2.2058;-40.6840;-81.6955;
-102.8931;106.3393;87.5422;55.2725;-125.9682;-75.7727;
-101.0207;-192.1150;-116.9828;-94.5510;-121.6278;-83.4906;
-108.6484;49.9247;-125.6496;-62.6968;-41.1287;-84.5313;
-110.0458;66.7752;78.4945;39.5097;-38.1470;-79.9305;
-95.3736;-69.0007;-121.2429;-95.9939;-118.7079;-85.3075;
-102.9171;70.1864;-55.7599;-51.7302;44.4930;-85.5040;
-101.6224;49.5849;74.9888;49.9086;42.1208;-82.1188;
-89.4186;-158.2151;-109.4370;-101.1930;-42.3947;-80.9678;
-98.2737;83.8236;26.6780;51.3405;119.9991;-84.0654;
-99.0241;56.3489;85.1832;37.6027;121.0365;-83.5007;
-103.6213;165.1061;-108.3635;-124.6709;-118.6798;-73.6874;
-111.6467;51.2464;-115.6332;72.2958;125.6624;-56.3649;
-114.4514;43.6720;83.8541;57.1794;-40.3427;-61.0784;
-114.2021;21.5028;-128.3803;-112.0717;-123.3886;-19.2691;
-77.9918;63.9189;18.3805;-52.2977;123.2875;69.2006;
-79.7113;55.6269;86.0918;74.0478;-45.7486;82.6784;
-101.0100;162.4872;-100.7849;-52.4025;-124.4068;-90.5332;
-107.3966;48.7713;56.2987;46.0983;122.3376;79.1260;
-108.3163;42.8438;82.3519;72.0498;121.3586;114.7481;
-96.7503;-73.8353;-66.5441;-74.3340;-92.4636;-75.1165;
-102.0182;1.3464;-75.2586;-69.2406;-91.8030;-88.0525;
-101.9990;-16.6623;-76.6848;-106.3462;-90.4280;152.7282;
-119.9045;-114.9935;-90.0697;-6.4820;38.2930;-92.3394;
-94.8346;83.2593;-52.0855;100.3303;27.9746;60.9893;
-128.9830;68.8592;95.1526;68.8595;34.3613;92.5623;
-52.2917;-83.0187;-100.9715;-50.9116;-126.9836;-99.7433;
21.5023;76.6383;50.2961;66.9879;115.6770;92.6502;
-16.4202;62.6640;82.0616;70.7904;115.1728;106.1238;
-107.7124;70.6233;-85.6626;-68.7811;-44.5084;-73.3767;
-114.0127;64.0228;-6.3434;82.6890;115.6615;8.6797;
-117.4669;52.3154;88.4561;65.6954;120.9963;124.8274;
-53.1450;-126.3964;-134.5928;-158.2273;-42.8123;-90.7871;
53.6760;62.1390;80.4749;78.5322;117.9818;-31.9611;
-53.2993;78.4287;62.0851;38.8041;121.0173;-30.8754;
-82.7789;-131.9110;-102.5813;-64.6694;-125.3558;-65.7448;
-22.2990;82.8326;47.5097;-71.3213;123.6133;-83.8515;
-83.8521;70.8555;90.8455;99.4891;39.4681;-64.4271;
-84.1172;3.5223;-110.4406;-95.0478;41.4256;-76.6838;
-56.9958;71.0743;-59.7807;9.4291;110.2182;-97.3585;
-48.2229;38.4263;79.5179;63.3730;115.2383;-77.5160;
-75.4860;-89.9290;-106.3137;-100.9609;-45.5084;-89.5393;
-48.0710;121.4121;122.1691;67.8241;117.0000;-92.3515;
-44.6505;110.2867;91.4811;87.0386;117.3722;-87.0121;
-108.2880;165.8389;-120.4027;-127.9879;-125.3394;-77.9514;
-114.0119;38.8158;20.5402;-70.5166;117.7280;-78.4399;
-111.8364;31.0800;72.3724;47.7381;120.3539;-75.1700;
-103.7427;159.1219;-128.0608;-130.4902;-118.3595;-82.5931;
-110.2081;46.0335;121.4606;-72.9081;122.3221;-82.5114;
-109.0639;28.7610;69.0007;76.1129;123.3066;-74.0468;
-100.9581;106.7192;-126.4493;-56.5154;-123.7298;-80.0672;
-108.7528;46.2736;123.4180;-20.4151;123.0000;-81.9693;
-106.8197;40.7334;68.6549;53.5127;121.3722;-76.8397;
-103.3930;-206.0328;-124.0031;-116.3591;-123.9471;-71.4259;
-110.0588;80.1602;85.2918;63.5374;122.0491;-71.2288;
-110.9206;51.3942;69.0351;51.1183;-45.7613;-68.6248;
-104.1268;150.2646;-128.1658;-112.8434;-38.0225;-78.3960;
-110.0762;48.4670;120.9793;-1.0357;125.9836;-78.8033;
-109.1591;43.4085;66.5094;46.9615;-126.0173;-75.2138;
-105.0668;109.7427;-96.4347;-80.1214;-39.7565;-78.5519;
-111.6613;49.4073;45.2671;-33.9839;44.5248;-80.3963;
-113.2092;44.8885;56.2399;31.3162;-41.4499;-75.8535;
-98.6261;102.3615;-119.5416;-105.9587;41.1334;-86.5634;
-111.8081;52.5176;-39.8352;-6.8824;114.6405;-107.6584;
-104.4042;41.3212;75.9244;50.0827;120.3010;-81.9873;
-101.3219;-188.5114;-111.5754;-73.3823;-115.3530;-85.3221;
-107.3030;111.8741;-12.4336;-30.3142;-124.0309;-86.2692;
-107.5991;74.8290;78.9961;45.0535;39.0407;-80.6317;
-109.9102;-156.3616;-97.2960;-46.3190;-120.3212;-88.4252;
-76.2167;118.5748;-42.6741;-15.1679;45.7968;-91.0084;
-116.8489;106.7292;95.8581;70.7950;-39.1123;-86.6588;
33.2068;21.2389;-123.4627;-106.7034;-119.3558;-85.2721;
25.9508;62.5708;-46.7214;87.4423;43.5103;-85.4975;
26.4572;47.9432;73.4951;36.1466;38.7514;-83.4897;
29.8029;-144.5437;-126.8258;-106.2281;-123.0337;-86.2004;
22.1302;101.8392;88.9609;89.3433;121.9644;-86.5863;
23.2736;69.3070;68.1512;46.5897;40.1035;-83.6788;
-80.5353;129.0130;-111.3220;-81.9529;-125.2865;-78.0368;
58.6917;47.3969;-47.7849;73.8307;-40.7739;-62.9148;
-9.7159;50.1866;77.9328;36.4210;-43.3755;-65.4958;
-116.0940;164.6584;-96.3857;-26.0897;-37.1470;-63.1889;
-120.4864;47.9898;-21.5912;-35.2391;119.3867;82.1311;
-80.4628;43.8725;82.1051;72.8188;117.0173;44.8402;
-115.4608;111.0608;-136.3490;-85.6205;-122.3932;-84.1755;
-119.3982;56.9432;13.6399;7.0943;39.0763;22.6943;
-78.4718;50.0371;77.7266;76.6682;119.3904;107.5864;
-102.5876;-76.8908;-69.5880;-99.6668;-89.8695;-78.2286;
-71.8837;5.0315;-74.7443;-94.5700;-90.8021;-89.2754;
-107.2981;-10.2370;-75.4805;-119.2813;-91.8386;126.2090;
-11.9886;-133.5134;-90.3877;34.1433;42.3758;-92.9566;
50.0627;70.3157;-43.6604;113.3329;32.3622;42.0876;
-19.2846;63.0753;99.8737;64.8985;33.7746;72.1193;
124.6100;-111.7927;-104.0583;-86.9664;41.1306;-96.6756;
120.4338;84.4689;18.5086;95.9450;116.9481;44.3395;
127.1985;73.4627;80.3237;49.0224;108.7490;123.1952;
118.5871;-118.2548;-86.5239;-48.4316;-123.6751;-96.3277;
111.6439;83.6503;-115.2772;-35.3593;115.4223;50.2947;
123.3676;65.5884;89.0592;46.4695;118.6058;137.9928;
112.7723;105.8082;-117.6370;-96.5798;-40.1470;-64.6103;
110.2615;44.6347;50.0677;72.2319;118.6597;-9.5132;
117.4067;16.5908;70.0128;51.6603;116.5567;-28.2266;
112.7331;-153.9317;-88.1271;-44.5175;40.9278;-100.4537;
108.0099;91.8042;-18.2296;-65.0357;118.6990;-100.7511;
113.8985;103.4158;106.4020;135.7813;118.4213;-135.1913;
114.1875;-138.0859;-114.3185;-65.1150;-45.7804;-72.4180;
109.7203;94.2607;77.7701;-36.0582;115.1175;-55.1886;
119.2220;93.7696;89.7063;106.2192;122.1512;-71.4448;
117.3840;-158.6340;-135.9626;-153.1545;-117.7135;-68.2018;
112.9148;76.5302;114.6719;84.7232;-45.5257;-69.1721;
121.2074;48.3777;57.7500;38.5849;-125.9827;-84.8543;
86.2825;114.0877;-130.7168;-132.9884;-117.9335;-74.9514;
116.2606;37.7544;56.2486;34.1398;126.0173;-76.0814;
122.8765;33.0092;64.4465;51.1761;-121.9363;-74.3527;
55.5187;142.4208;-130.6808;-115.2898;-119.3057;-84.4723;
85.8131;32.6229;120.9732;-58.6920;125.7116;-85.5498;
93.0170;28.4652;61.9015;65.6401;-41.4518;-79.5077;
-12.4662;141.3648;-135.1210;-120.0485;-118.0009;-86.5577;
93.0596;30.7743;115.2720;-97.9915;-126.6615;-86.5098;
23.6860;25.6653;57.0840;87.9531;-124.3403;-79.8254;
-117.8495;-72.5512;-132.3944;-100.8997;-119.7261;-76.3381;
-46.0972;67.9366;89.4859;-77.4463;-126.3403;-79.2881;
-42.1354;37.7205;61.2044;91.3884;-125.2875;-76.6431;
-112.9583;85.6428;-23.0553;-47.0192;-124.0847;-82.3171;
-117.3571;41.4936;46.9610;-46.6321;124.7116;-82.2496;
-116.9208;35.9872;59.7232;35.9680;-46.1362;-79.2802;
-77.4486;168.0004;-113.4879;-107.9470;-39.0398;-80.9348;
-39.4274;40.2510;58.1602;126.9370;43.4438;-80.9193;
-40.1861;61.0113;85.4811;74.2610;-37.4120;-77.5907;
-93.5055;97.8347;-122.1770;-69.7612;-116.3376;-86.0849;
-102.2245;49.9213;29.3668;-67.9152;40.1269;-89.2575;
-102.0266;38.4757;77.6411;48.8783;120.3741;-82.7982;
-95.8912;-103.4848;-127.7784;-83.9608;-118.0491;-90.6592;
-101.2727;83.6446;51.4893;69.1402;40.1269;-92.4318;
-99.9112;57.5955;75.5185;63.2504;39.0763;-87.5010;
-96.8956;-188.6039;-112.5505;-58.8401;-121.4077;-90.1417;
-104.1832;105.3531;-110.0865;-15.3059;40.3437;-91.9384;
-104.2768;89.2667;98.4530;63.2229;124.3577;-87.0258;
-113.6440;52.2988;-130.9718;-92.7306;-118.6569;-85.1577;
-83.0382;51.7321;86.5571;-16.5537;44.5257;-85.6074;
-85.0594;39.0538;64.2199;63.1912;-127.6779;-82.0006;
-49.0192;-108.2164;-123.8429;-76.3706;46.7631;-83.9426;
-55.3838;89.5792;59.0783;-54.3449;123.3230;-82.9478;
-53.9404;63.2353;68.0119;47.2323;123.6798;-80.1590;
-80.6414;108.3367;-115.5456;-104.2060;-40.0234;-60.0534;
-51.2492;53.0652;-40.3760;67.6462;124.6259;-64.8136;
-50.0733;48.1955;77.7378;58.7249;125.3567;-67.6865;
-116.0489;-142.3476;-118.0932;-51.3293;42.0735;-37.2183;
-86.9093;70.2055;121.3759;-9.1308;115.7280;56.4811;
-119.9809;53.8118;75.0860;53.3941;115.3441;30.0216;
-61.9706;-70.9032;-73.3444;-100.0911;-85.8086;-65.0867;
-68.4670;-76.4703;-75.1436;-94.3405;-85.4683;-77.2199;
-103.7127;-77.5115;-108.4148;-151.7573;-86.0624;118.7621;
28.4051;-35.4064;-95.0574;92.5844;-31.9111;-122.6706;
16.6213;69.3669;-6.1752;69.9055;-40.8929;30.1984;
25.3364;63.0398;99.5280;67.1331;-38.8620;84.1623;
117.7533;103.2227;-103.8891;20.6154;124.6606;-91.8739;
116.0585;51.7239;22.6033;88.5067;110.6742;-2.0561;
121.3370;46.2297;86.2183;59.0914;108.9991;134.7071;
111.6405;-72.6684;-102.7477;-56.8093;-38.5009;-96.2837;
106.3076;71.2339;121.6553;47.9692;117.6615;75.7296;
109.7537;48.4356;80.7034;61.8509;115.2674;115.1272;
112.9725;165.9803;-94.6168;-104.3605;-124.2875;-86.5642;
108.5363;60.7474;-1.0393;90.2277;118.7116;-29.4858;
117.7753;42.7891;79.8446;50.1829;119.3094;-29.4551;
115.8613;102.9816;-98.8571;-69.1115;-120.6442;-94.5634;
111.7150;77.0967;27.2407;-40.4259;125.3376;-75.5941;
123.1315;62.0811;102.3318;114.8468;-126.7116;-93.3427;
118.1356;95.3172;-132.5873;-90.4551;-122.3549;-67.8102;
116.1726;44.7270;50.2170;20.9961;122.9663;-74.2428;
121.7859;27.2756;64.4699;51.1630;125.3029;-71.8985;
123.1345;27.8480;-128.1524;-118.2968;-122.0538;-94.8535;
118.4893;63.7163;20.1384;116.7353;123.9991;-75.2952;
90.1016;43.2028;64.8701;37.4368;39.4139;-70.1060;
48.0685;105.4758;-135.8047;-106.6557;-119.9490;-80.7069;
122.7643;40.2647;16.4524;96.1096;44.8469;-83.3200;
127.2474;50.5256;68.3763;50.4515;-45.0852;-78.7725;
-15.5227;121.3397;-95.3047;-81.2506;-118.7298;-87.8704;
-23.5347;27.1937;48.7643;65.7170;-126.0019;-90.1368;
20.0052;23.0216;54.4793;40.8652;-124.6798;-85.4816;
-110.5480;76.2541;-22.4909;-37.0627;-122.9972;-84.2426;
-116.6987;34.5662;47.8689;73.4168;44.8478;-85.4709;
-116.4154;33.8777;59.8873;40.7643;38.4321;-79.7526;
64.0218;25.8857;-123.6060;32.2709;-39.7860;-81.7016;
55.0332;54.0846;89.1832;100.2318;118.2402;-81.2282;
58.2548;46.4027;70.6751;42.0387;40.4583;-79.5773;
-100.7339;83.6728;-54.7257;-76.3068;-121.3722;-85.3091;
-107.4340;34.7751;13.2107;77.4948;122.0154;-85.8346;
-107.0115;31.0664;65.6283;45.9083;40.7978;-82.0095;
-103.0577;139.3228;-134.1159;-166.7537;-121.5932;-83.3698;
-73.8628;36.1259;49.7144;84.7457;121.3038;-83.4256;
-107.9288;33.2439;58.3269;50.6981;124.6414;-79.0448;
-102.6051;81.7851;-115.5561;-94.9917;-121.0164;-91.1725;
-111.2785;54.5130;5.9124;-43.1747;122.9818;-93.5163;
-109.7030;44.4373;89.7127;73.6874;-42.4672;-84.4723;
-103.2092;89.2756;-124.4764;-120.7248;-116.6943;-89.0477;
-110.8070;56.2898;26.2003;8.0083;-125.6770;-88.6981;
-109.1768;32.6616;71.4975;53.9139;-40.5182;-83.7382;
-120.2702;-151.8333;-133.8720;-65.8480;-119.0491;-82.4714;
24.5721;88.1421;49.2433;-65.4737;-41.7032;-84.7687;
-9.6735;56.9155;61.0579;33.7123;43.4766;-80.8620;
-10.6012;99.7305;-129.6597;-85.1361;-121.7298;-87.2593;
-16.6029;42.8361;84.3432;-66.1073;122.9981;-67.8323;
-15.1484;37.4011;71.0059;55.9320;124.6288;-84.0420;
-15.3177;-109.1675;-130.8173;-82.1766;-122.3549;-84.2151;
-20.4232;87.1731;121.5989;2.1967;34.8750;-67.4693;
-19.1338;79.3296;77.5870;54.5240;121.1039;-63.0330;
95.1716;108.2332;-135.7689;-101.5481;-120.9808;-34.1720;
122.7145;56.6425;124.2928;74.6268;40.4583;-20.7168;
118.4551;41.0330;71.2206;59.0658;121.6306;-29.6147;
-92.7374;51.5738;-111.9475;-52.7714;-122.9298;-1.6206;
52.0206;60.8001;122.6293;51.7630;37.8558;101.5884;
96.6397;54.2222;75.2575;62.8368;120.6760;89.1799;
-53.0464;-57.4753;-74.3002;-92.8582;-76.8807;-55.5407;
-56.3331;-51.4861;-71.7227;-82.8151;-75.8980;-62.1120;
-55.6928;-55.9032;-69.8094;-83.0632;-77.8961;-12.0371;
-49.6794;25.2553;-92.8711;70.7952;-99.7017;-101.0571;
-57.0507;75.3617;-34.6319;60.1031;-107.3605;40.8001;
-14.6672;63.2529;49.4494;86.2245;-105.7172;110.0252;
111.9143;161.8432;-99.7792;-68.8051;40.1142;-91.6013;
108.6781;54.5748;25.4477;26.6716;112.6442;-8.7589;
102.9019;52.2384;91.8051;71.0689;114.2758;99.9302;
110.7224;149.5319;-105.8685;-25.6830;125.6606;-89.8552;
106.4100;41.1230;112.6743;103.2912;113.3038;32.3824;
107.1495;32.6288;76.5791;52.6701;110.3366;98.9661;
-23.3894;217.0865;-89.1414;-6.4356;-42.4565;-77.7189;
46.8464;52.0210;-29.1790;100.0947;117.6433;9.9209;
-23.1503;20.1836;81.6355;39.9545;116.7107;94.2256;
119.1252;130.5478;-100.6642;-49.9931;45.2008;-85.0671;
107.3088;79.3320;54.0704;88.9795;116.7499;-84.1623;
79.5338;46.3410;102.6399;101.8739;115.9883;-102.7976;
119.7588;73.7664;-132.8618;-123.6731;-40.7149;-84.9353;
113.0896;35.6315;86.1428;111.1376;113.9345;-88.7511;
122.3951;23.6772;67.3486;36.7061;114.5749;-104.7613;
113.8603;81.1314;-98.5532;-119.8790;122.9326;-88.3165;
109.7413;30.0992;-15.5374;116.9376;111.8507;-69.1698;
115.1191;28.3151;69.7011;35.3094;114.5951;-46.6464;
123.1507;35.7810;-123.0190;-93.5117;-126.7116;-93.1752;
113.8410;65.6852;30.2902;100.7050;116.6068;-88.4600;
122.8388;41.5695;77.6120;45.8254;119.9335;-89.6267;
-19.3722;63.0427;14.8907;-90.7142;36.2092;-71.2995;
80.3053;25.3768;113.9989;-9.9556;112.3731;-90.6924;
15.6290;26.8083;59.8087;62.8981;113.4059;-84.5741;
-53.4404;66.0684;17.7566;-125.4246;-41.7804;-90.3382;
54.0404;31.1693;48.1425;84.2919;121.0519;-89.6644;
22.2091;29.4975;61.3037;55.5750;117.4396;-84.7201;
-113.9709;80.7721;-126.7575;-96.9200;-126.3240;-85.7310;
-14.0854;31.7658;-46.2011;-34.1570;120.0019;-86.4662;
-121.4637;14.5391;73.2021;43.5860;117.9616;-81.9744;
19.3370;114.2409;-97.3191;-113.4709;-116.9836;-82.5954;
90.8091;47.3225;51.4884;120.0520;-125.3066;-83.8090;
56.3318;36.5410;64.1831;44.9450;-45.7959;-78.2695;
-99.7765;57.4245;-50.2247;-109.6125;-114.2893;-88.1315;
-104.7489;19.5849;89.2491;34.0527;-123.3385;-88.6906;
-108.3850;38.2119;75.8395;81.0739;-43.4873;-82.3115;
-101.5910;74.3525;-99.0466;-104.4355;-116.6643;-91.4108;
-108.9592;30.2196;57.3073;-53.8668;-125.3577;-92.0399;
-106.9100;27.2431;75.7339;66.3875;40.0380;-85.9795;
-105.4624;117.7217;-125.3839;-93.2116;-116.3403;-86.7076;
-108.9085;54.7479;29.0537;58.7242;-124.3539;-89.3311;
-110.3606;32.7765;70.5997;42.9830;-43.8315;-84.5548;
-111.8299;128.3487;-132.8795;-68.9000;-120.6433;-84.9124;
-79.9170;57.0576;47.6645;-25.2006;38.8394;-67.3346;
-118.5870;38.2765;71.7544;57.8827;121.9836;-61.9471;
-80.7049;90.4938;-101.5018;-65.7968;-121.0154;-89.5982;
-48.4275;44.1561;109.1590;67.2722;125.3403;-90.2994;
-46.3659;41.7165;55.9361;39.2875;122.6643;-86.0526;
-82.0524;115.3471;-112.0629;-68.4990;-122.3376;-71.2655;
-88.7535;77.2098;75.1268;113.9798;122.2692;-75.2021;
-46.7319;65.9249;89.1446;68.1396;40.4237;-70.8867;
94.2408;107.0501;-125.7133;-68.0903;46.4401;-54.8987;
88.2070;47.5964;49.0806;103.5403;116.6606;-0.3609;
89.2943;39.1947;75.1256;48.7115;114.9354;9.4065;
-39.1864;-45.5337;-70.4548;-84.4554;-73.9307;-56.7672;
-41.2545;-44.9821;-71.0513;-76.2288;-72.3038;-75.4156;
-79.1338;-44.2442;-68.4564;-80.0496;-75.2683;13.1192;
-83.6816;-60.7868;-82.6404;58.7668;-102.3666;-105.0534;
-48.7827;118.6665;-89.4500;-2.6478;-103.9425;14.9867;
-45.6431;47.5969;-22.9309;80.0787;-108.3764;122.6256;
119.2665;122.9865;-101.7949;35.1710;42.9900;-79.4647;
107.4751;50.8618;0.7541;73.6251;28.4188;37.4672;
109.5042;53.4610;99.8282;59.1898;35.0902;68.6675;
108.7168;140.5013;-108.7150;-52.8624;-43.1671;-113.6335;
103.6575;45.6807;86.3312;116.4611;109.2346;-13.9109;
111.2069;34.0075;78.3856;50.6802;110.0791;116.0322;
11.4705;143.3659;-106.5709;-46.1167;-122.0356;-79.1007;
122.5911;82.5812;23.3200;131.3528;114.9808;34.4009;
91.5479;33.9374;74.6270;50.4739;116.6086;125.9227;
80.5977;96.0703;-130.1639;-150.6955;-122.3403;-66.8486;
108.3857;38.5011;17.0440;105.7321;120.2875;12.5108;
80.3567;19.8189;71.6555;33.5379;117.9172;-8.9111;
112.6027;105.1045;-115.2625;-78.0801;-120.6105;-96.8553;
105.1879;61.1563;27.4324;117.5177;117.0009;-59.5387;
112.4458;56.8767;90.5079;81.5318;116.0210;-97.6376;
113.8664;111.4010;11.9633;-139.0856;-35.8586;-67.7847;
106.6279;49.9179;80.8971;114.9785;121.3212;-71.6415;
107.7449;34.3854;63.7366;33.8870;121.9481;-82.6501;
87.2104;28.9070;-123.2146;-118.8663;-122.3605;-101.3772;
120.0209;63.7203;-9.3905;45.3449;117.6442;-58.5194;
86.7687;38.8889;75.8173;50.8324;112.6414;-75.3860;
90.2051;67.9418;7.2845;-88.1273;-122.3694;-54.9570;
122.1360;22.5568;105.4646;20.1656;120.0721;-55.2419;
124.8016;21.9637;56.2639;49.2818;122.3422;-66.8456;
53.3747;113.5897;-23.8269;-117.7216;-120.6587;-58.5415;
117.1579;24.6696;112.4775;81.1363;123.6779;-59.1523;
123.7047;18.5114;54.4993;41.4366;123.3914;-53.6414;
-23.7304;69.1794;-58.0799;-104.8848;-117.6124;-94.0299;
124.4098;28.8608;-15.2316;44.2076;122.9855;-95.3753;
128.9031;22.9618;71.5745;44.3531;121.7626;-89.8312;
-18.3577;124.4324;-135.4605;-110.4677;-117.0201;-89.2302;
15.8560;55.0622;-16.0967;121.1098;-40.1460;-90.4379;
53.7951;32.0549;65.3790;42.9209;44.4747;-83.5781;
-110.9808;59.4199;-60.0296;-93.8215;-116.3048;-91.3910;
-117.5077;18.5745;114.5079;29.2631;125.6624;-92.5143;
-117.6739;20.7825;56.5691;61.1381;39.0735;-85.9053;
-106.3998;62.5560;-130.1436;-106.6149;-121.0482;-87.4367;
-112.3490;19.8271;25.9765;104.7299;122.9846;-85.4441;
-112.4013;22.7656;68.9526;48.0935;119.7088;-82.2341;
-121.1046;105.6745;-133.7296;-82.1932;-117.3567;-72.5905;
-53.6333;41.6405;83.0242;72.6462;-40.7196;-74.0171;
-49.2285;43.2567;66.3810;54.7878;37.0052;-69.2756;
88.7783;24.2334;-32.1290;-93.4273;-120.7626;-100.0641;
83.2906;61.3300;108.1471;105.2905;42.1180;-103.5554;
88.2968;36.0089;57.0502;27.6765;44.1199;-99.8617;
74.3776;74.4883;-142.0088;-74.1967;-119.3712;-68.0259;
68.1477;29.1521;109.5930;-13.2862;40.1180;-68.2423;
75.0450;19.8156;59.0978;32.7209;122.3240;-80.3958;
16.5080;93.9804;-102.6713;-101.4697;-120.6723;-62.2773;
91.4558;37.0780;106.9826;105.2548;116.6278;-40.4880;
83.5530;29.5727;56.9866;40.6588;113.5586;-38.6461;
-68.3550;-42.9650;-70.5545;-83.1758;-70.9509;-45.7593;
-71.5978;-43.4829;-70.4422;-76.7139;-72.9818;-54.6969;
-73.0370;-43.2910;-69.3592;-79.6036;-73.2884;-80.7877;
-64.6209;-71.6226;-78.1578;-82.5393;-91.1134;-82.8253;
-69.7705;4.1350;-95.8528;-81.7276;-90.1143;-47.9621;
-68.1936;-48.0393;-70.9488;-84.6622;-93.1007;123.5900;
-49.2923;156.6355;-100.3840;83.6002;-101.6325;-96.0712;
-63.5557;52.6290;-4.7820;65.2426;-109.8872;12.6986;
-21.1345;51.0762;46.2079;62.7193;-108.0009;91.5865;
106.0410;121.0675;-109.3804;-62.0234;119.7153;-113.0870;
95.4834;37.1171;29.0482;103.5573;105.6798;38.8899;
96.3470;40.7621;81.5440;63.6491;108.4260;75.4502;
125.8078;127.8357;-107.9421;-53.2873;44.1508;-74.4734;
120.1890;40.3640;116.1016;112.3742;113.9654;-3.7636;
125.4991;33.3624;79.0930;55.2996;109.5941;120.3570;
112.6939;187.0675;-124.6546;-113.9795;-124.3076;-96.3233;
109.1578;44.7038;85.8723;111.3161;118.9153;-31.4995;
113.7919;25.6609;73.0933;47.1161;118.0856;63.2256;
105.1646;82.0235;-124.8041;-121.8246;-37.7921;-96.8005;
98.0412;36.3845;14.3125;88.7622;118.6433;39.7194;
103.8212;24.3896;74.6856;39.3695;116.6377;-11.0616;
111.9137;158.8953;23.3237;-97.6090;39.7921;-80.4451;
103.2074;50.2227;8.9022;100.8354;113.0538;-85.0418;
103.8420;34.4806;73.3054;62.6733;119.2566;-98.8471;
121.6044;73.0101;-112.6045;-91.8180;-123.9981;-56.9512;
116.1192;20.5365;-51.0001;82.3819;118.9808;-59.8027;
118.5251;11.2304;72.1002;22.7380;114.6770;-75.1475;
114.4421;107.7618;-27.0376;-123.5050;-118.7827;-41.3372;
110.4994;48.3655;9.2503;110.5612;-42.8277;-66.2103;
115.1188;44.6686;70.4132;62.2299;123.9471;-81.8003;
113.2100;59.4508;-95.8049;-87.3284;-122.9326;-60.5218;
110.5088;23.7108;117.8947;-28.8716;123.9663;-63.1847;
113.2762;17.0166;64.4419;40.9060;34.1825;-75.6673;
110.2402;76.1876;-25.8649;-120.2665;-121.0028;-63.0380;
107.5277;62.6341;110.0247;125.4093;124.9808;-64.1204;
112.0050;44.5312;59.7510;40.2436;122.3202;-78.5660;
-92.1895;116.1882;-125.9799;-80.4449;-119.6760;-95.6461;
52.1077;47.5032;58.8423;72.2460;122.3221;-74.9721;
93.9704;30.7872;68.9500;38.8368;119.7008;-90.0301;
-78.5878;86.7593;-19.6765;-100.2285;-117.6788;-89.0730;
-16.7616;28.7957;21.5680;133.7531;-40.4508;-89.8552;
-50.8297;24.7386;65.8538;63.4447;40.4518;-86.1771;
-119.9489;54.4563;-27.3178;-110.6489;-118.6597;-90.1521;
-18.3917;16.5374;77.5250;-32.9675;-41.4499;-72.1669;
-47.5888;16.2009;56.4149;49.5820;119.6269;-67.1040;
28.5601;56.4200;-26.4550;-119.3988;-116.3057;-98.7269;
92.7584;15.3120;13.2101;114.6763;-41.4490;-101.6643;
61.5088;19.6728;62.9911;39.3977;124.3230;-95.0865;
24.7471;71.2933;-35.1358;-90.6887;-122.9345;-61.8116;
120.8082;21.0078;104.0705;106.7728;122.3048;-64.1855;
117.4675;15.0333;55.1054;33.0683;117.0356;-77.2891;
124.8872;71.9907;-100.7821;-87.9397;-124.3202;-88.8508;
119.7880;25.2366;112.9118;107.9397;122.3357;-49.4105;
118.5522;21.5726;60.4162;40.6327;116.0665;-70.2585;
-65.2271;-39.4742;-69.2295;-81.5110;-70.6760;-51.5166;
-66.6698;-40.5954;-69.8177;-73.8679;-71.9654;-54.8709;
-68.3440;-40.5638;-68.0305;-79.4603;-70.9499;-67.1958;
-80.6499;-56.1380;-77.5044;-90.3840;-76.2875;-63.8247;
-43.5476;-50.9885;-75.5273;-79.5660;-78.5567;-61.4370;
-80.6464;-54.5861;-72.6942;-80.1900;-79.6980;1.5889;
-77.4486;-11.4704;-84.9920;58.1521;-107.0244;-102.8815;
-42.0099;-49.4409;-92.6293;-6.1526;-106.9734;-27.8929;
-81.6458;100.7386;-61.2959;74.7199;-107.2955;107.6534;
24.0868;134.6023;-116.8593;-2.3575;-27.1804;-102.6949;
47.2829;43.8944;87.7068;50.7047;-37.5526;83.0687;
17.4494;54.5735;96.0977;52.1254;-36.8564;67.7500;
109.5393;112.1118;-101.0108;-57.0009;113.2566;-98.4114;
99.7059;33.0479;25.1984;109.8048;104.2884;58.6010;
100.7226;35.6182;85.1973;60.2340;107.3057;54.5439;
103.6514;137.0673;-106.4749;-53.4582;121.5941;-54.2134;
92.5651;37.2533;52.9413;112.8693;110.6096;29.3379;
106.4382;30.3637;77.8968;59.3374;107.3750;136.4060;
92.7185;171.3451;-41.4179;-83.3287;42.8333;-81.8162;
83.5622;31.8385;11.2481;109.2808;112.6634;-26.3861;
84.0690;18.6005;64.2946;46.2275;114.6807;22.6727;
105.3884;77.1644;-92.1848;-97.1075;-124.3567;-1.1801;
97.6952;29.1520;81.5325;53.4681;115.9134;81.8770;
106.6480;29.2807;67.4520;21.0400;113.5431;42.9056;
110.5128;79.7654;-33.6266;-97.6562;-44.3872;-40.0095;
104.0658;18.8412;108.2423;100.5019;115.0538;-42.6422;
106.0020;34.3395;68.2075;57.8546;115.4096;-76.0043;
101.9012;60.6597;-121.3983;-85.2049;41.0188;-44.1686;
98.3346;57.9101;83.7501;105.6357;114.2374;-67.1971;
104.8571;54.7609;69.7242;38.4418;107.6096;-57.8791;
100.8788;102.8425;14.1139;-97.4226;-120.0856;-65.4348;
93.5456;46.1553;78.8918;94.2869;121.2865;-66.0165;
100.0741;46.2882;76.1887;53.9017;40.7786;-58.9194;
66.1687;90.5239;9.6858;-116.0180;-121.0136;-83.6835;
96.0784;34.1462;106.0954;75.5869;120.7308;-84.5025;
105.8046;22.8013;52.1343;41.4216;119.6105;-77.7725;
76.4776;75.8927;-63.3398;-93.1355;-37.0380;-67.7599;
72.7127;28.0405;84.9522;114.8799;120.9134;-65.6832;
113.0926;15.7110;62.3363;37.4367;120.2393;-58.3643;
86.6055;94.1640;-97.4660;-85.4100;-115.6606;-61.9579;
80.3626;40.7897;81.8796;88.9941;-126.0000;-62.0858;
82.3430;21.7185;61.3304;35.5011;39.0998;-77.6159;
81.3166;75.0904;11.3492;-98.1160;-122.7107;-92.4298;
110.9718;28.3913;76.2649;95.2381;42.4757;-94.3886;
115.4666;31.7312;53.4479;50.2438;118.7790;-88.9444;
62.7859;49.3134;-30.8584;-93.6227;-119.3403;-63.8710;
88.0791;12.3338;42.5026;44.1114;125.3221;-65.2452;
88.4231;6.8528;51.5137;36.7449;121.7443;-60.4359;
48.9970;66.7223;-69.5794;-76.7242;-122.6816;10.5216;
117.6866;28.0500;104.1126;103.2966;124.3066;24.5881;
84.9636;14.7960;51.7386;31.0120;121.9335;23.0725;
-63.5984;-39.8797;-69.1273;-81.1311;-70.6606;-50.1307;
-63.5126;-40.2524;-68.7463;-72.5363;-70.9827;-47.5419;
-65.1154;-41.2808;-67.7968;-78.0874;-68.6250;-49.4553;
-72.0504;-49.0241;-73.5841;-82.5028;-75.6779;-54.0718;
-36.5887;-47.9262;-72.6959;-76.6283;-73.6423;-62.9590;
-74.0801;-51.4418;-73.0533;-80.5815;-77.0328;-86.0838;
-57.3989;-73.0640;-85.3116;-105.8192;-89.8105;-69.4400;
-59.6840;-74.2831;-83.3091;-98.0021;-88.7613;-29.0083;
-60.3542;-95.2428;-61.6488;-90.3145;-87.5221;26.0588;
-84.4717;8.2463;-92.6407;61.3277;-106.2251;-111.6405;
-15.7401;136.5166;-102.5902;-5.7059;-111.5271;86.4579;
-44.4963;64.8232;-0.9267;70.2994;-109.1512;101.2344;
48.5363;121.7567;-111.0599;6.4983;-109.3873;-116.3896;
37.5144;31.7858;16.5885;40.6046;-33.8091;144.8709;
44.7672;41.9943;91.8929;57.0076;-32.8957;76.3456;
89.3988;122.9427;-38.3521;-74.8559;111.5941;-103.5678;
74.7036;34.3858;14.3191;113.5155;101.6105;17.3718;
85.5650;30.0558;86.0881;63.2652;102.5843;63.4862;
98.1207;113.8530;40.1940;-46.7524;118.6259;-100.2709;
87.2460;26.1611;2.4894;95.9444;107.6597;4.5801;
100.4589;29.2907;70.2709;46.7670;103.3712;138.4287;
90.7388;103.0893;-105.9948;-68.2906;-123.3366;-91.9246;
87.1973;32.3741;56.0287;50.0521;115.3066;48.7740;
86.8275;24.3289;77.2406;50.5082;111.6624;66.1348;
107.2008;97.3315;-63.7376;-70.4849;-42.1479;33.6870;
101.4758;44.3034;106.5548;105.2272;112.0019;67.8374;
107.8429;27.9767;61.7186;35.6146;110.5211;84.9795;
104.3104;87.8855;-98.3058;-104.1691;-41.0426;18.3490;
101.6182;28.5694;75.7664;64.6676;113.8816;37.0286;
103.8635;19.3330;59.9028;32.0342;112.5431;22.0590;
100.0384;119.5641;-95.1645;-97.7133;44.1536;-25.5136;
93.8777;56.8565;52.9579;103.1376;114.0693;-28.0587;
103.8277;36.8734;62.7804;27.5373;109.5530;-46.4682;
90.1894;66.7008;3.3209;-88.8059;-120.3787;-76.7745;
84.5800;17.2034;101.6784;78.7644;40.7748;-51.8273;
95.5610;10.4980;49.3703;27.3198;124.2847;-48.1818;
93.4103;52.2291;3.7596;-89.8011;-120.9345;-63.4823;
88.6724;5.3514;97.5751;107.9274;121.3385;-62.4652;
92.0671;4.2533;49.6781;32.4382;116.6297;-58.0010;
103.0009;45.9667;-104.6822;-108.4143;-118.7144;-7.2600;
98.8859;4.8395;46.2186;105.5683;119.3385;-9.7995;
102.5581;25.2938;73.8235;40.5934;114.9991;-1.7056;
79.7045;81.5358;-62.9604;-97.7325;-116.6278;12.0257;
75.7131;24.9418;104.6241;97.9799;120.3048;31.4539;
78.3989;18.0232;57.4585;30.6179;122.9471;34.9252;
6.6622;77.8973;1.6944;-81.6795;-121.6597;-3.6418;
37.5863;31.2863;34.5176;99.5678;119.9200;30.4158;
82.6463;25.1513;56.7678;32.5012;36.0571;44.7418;
-59.4447;-38.0526;-69.0354;-80.7911;-70.2875;-46.8695;
-60.0541;-38.5488;-68.7122;-73.2182;-68.9827;-44.8644;
-60.1091;-38.9681;-68.1860;-77.8185;-69.3038;-46.4558;
-65.6522;-43.1153;-71.9297;-83.0628;-75.3212;-55.2629;
-66.7755;-44.9049;-71.7531;-74.7614;-72.3376;-57.4711;
-68.5861;-47.5391;-71.0767;-79.7250;-72.9991;-67.5182;
-76.5999;-55.3530;-76.8581;-86.0531;-78.6269;-69.6371;
-78.6486;-54.4304;-77.2628;-77.9347;-77.9663;-82.9525;
-79.5869;-52.3338;-75.7767;-85.7562;-79.6086;-23.1638;
-65.9461;-78.7521;-85.7824;-41.5169;-100.0825;-78.2925;
-66.8720;-52.3833;-105.3236;-44.4436;-99.6921;-19.7672;
-65.5145;-36.5191;-77.2496;-52.0212;-97.0661;100.0081;
-52.6470;7.2560;-98.9411;59.2222;-101.9587;-93.3068;
-19.0881;130.6849;-65.6085;-10.3115;-19.0382;109.9527;
-48.5326;59.9030;-7.3026;55.3658;-105.5336;93.8324;
46.2206;116.8296;-35.5302;27.3771;-33.2403;-109.1588;
34.0357;41.3171;-49.9544;56.2649;50.8247;37.6304;
40.6327;46.4708;98.2542;21.7931;-34.8663;102.9663;
83.5563;97.2863;6.9567;-63.2625;119.3923;-94.3379;
70.6545;15.2833;9.8357;103.0432;107.4241;-12.0210;
81.5467;27.8158;81.0062;46.5089;111.1011;48.2439;
84.2211;92.5109;-121.0226;-76.2024;117.5894;-102.7661;
71.0020;10.4029;48.3457;109.5738;107.9125;-9.0090;
84.1541;23.6867;76.7808;54.1234;106.6952;86.9195;
100.1944;125.0421;33.1203;-81.4210;36.0543;-53.1085;
93.8739;26.3611;6.5129;105.3962;110.0154;178.3475;
99.9777;26.9051;69.1844;51.6028;109.3066;131.5115;
87.6398;98.6202;29.5148;-64.5751;-42.5720;-9.9552;
81.3022;20.9581;95.5481;77.6920;110.6624;107.7067;
85.6694;23.4822;59.1001;41.2807;112.3277;76.0800;
104.4455;77.8399;-33.0137;-62.5008;-119.2739;48.8041;
98.4499;31.9643;71.3011;97.6567;123.0154;31.2607;
101.6608;21.8559;61.8758;47.3891;113.6250;61.6351;
78.9634;86.0355;-100.1272;-51.2653;-123.9654;-13.7851;
74.9809;39.7722;112.7543;102.4201;118.0693;46.2737;
81.0711;26.4362;67.0107;35.2008;112.4077;61.6904;
78.9845;75.5225;-36.2847;-43.8380;-38.7004;5.7326;
69.6203;30.0786;103.4964;97.6498;115.6470;43.7758;
73.5539;24.5210;56.5128;29.9755;114.0847;42.3470;
85.1443;56.3384;1.3852;-23.6949;-38.5355;33.2684;
80.4725;8.2922;100.9932;79.5049;114.6278;84.8467;
80.1355;16.7638;55.3297;41.1188;112.5749;29.3789;
90.5056;64.5899;-52.6215;-58.4938;43.3891;72.8522;
85.0502;9.4708;41.5694;96.5290;114.9335;142.3452;
85.3597;11.0044;65.7150;39.3129;103.1681;79.2641;
-57.7416;-38.6056;-71.0081;-82.6417;-69.0182;-47.0480;
-58.0434;-38.3107;-69.5421;-73.7233;-68.0000;-43.9674;
-58.7875;-41.8845;-68.7068;-79.3202;-70.3759;-43.9013;
-62.2014;-40.3544;-71.8514;-82.2506;-72.3549;-55.0911;
-61.9387;-41.6627;-70.9298;-74.8587;-70.6606;-51.8848;
-62.5140;-43.9384;-70.8864;-79.0263;-70.6597;-54.6702;
-69.0202;-49.3969;-73.4951;-82.9998;-78.3029;-59.0956;
-70.1808;-49.0478;-73.1748;-75.9884;-75.3221;-62.3753;
-70.8951;-51.3376;-71.9430;-78.6920;-76.6269;-78.5639;
-77.4145;-61.6936;-81.2900;-88.2869;-84.3048;-71.2682;
-78.5047;-58.5455;-80.8521;-81.8243;-83.2702;-88.1438;
-78.2034;-59.7031;-78.7716;-85.0181;-85.5941;13.4148;
-62.7961;-86.5718;-92.1915;-26.4294;-104.4210;-79.6692;
-63.9675;-56.9387;-95.8518;-36.1056;-103.0834;-40.1039;
-63.7015;-50.1605;-83.0172;-23.8886;-100.4210;104.7295;
-82.6312;111.5869;-97.5949;55.3963;-112.7401;-129.6461;
-45.3406;88.3606;-100.6299;-10.6376;-30.7008;109.7393;
-8.4832;72.3713;-33.7064;65.6296;-112.3023;96.0245;
-58.3465;107.2701;-67.6464;-22.4512;-32.9937;-131.9192;
7.2727;42.4996;55.4997;28.0979;-36.9571;90.1466;
9.7831;46.7670;39.3164;34.1090;-38.2994;70.8398;
37.9048;107.9161;-39.7447;-46.4352;31.7977;-117.2478;
93.8288;17.1223;79.6950;85.0013;108.6662;49.3637;
27.8324;33.1491;85.2241;58.3301;107.9410;72.2775;
90.4493;111.4932;26.3331;-36.5900;120.0683;-99.3169;
72.9502;23.1189;100.1695;96.5918;104.0866;59.5731;
84.0473;21.7071;71.2977;43.3961;105.0992;42.2544;
80.5585;64.5443;20.3584;-17.0362;120.3586;-28.0508;
74.0752;9.0939;63.4817;89.6996;111.6259;128.5129;
76.2548;27.9101;64.4773;39.4544;107.6807;97.5435;
76.2776;59.5785;23.5859;-12.5614;46.4064;18.1046;
71.2901;1.1008;98.2551;98.9035;114.5749;96.8259;
82.5427;20.1125;63.1501;44.4231;108.2557;117.1807;
68.3087;33.5693;-37.0553;-96.8502;44.1690;26.0460;
63.0813;-0.5388;107.0256;111.0914;116.5923;133.2474;
70.8567;5.2421;68.0247;53.2605;113.9790;54.8440;
70.7227;72.1841;-35.4551;-49.1600;39.0951;-12.3649;
61.2873;17.4121;111.3827;110.2319;109.8442;138.5626;
68.6926;21.5292;67.7625;51.9590;108.2163;58.1684;
68.7541;67.1583;39.0410;-18.8713;38.3081;36.6925;
58.7509;28.4343;99.8080;95.4489;113.6934;79.2369;
63.5441;27.3795;60.4698;45.1054;111.2491;62.3166;
-57.6343;-39.9004;-69.6831;-84.6428;-69.3385;-48.1996;
-57.9514;-39.8547;-69.4479;-75.8506;-67.9827;-42.9888;
-57.7239;-42.2553;-69.1881;-82.0596;-69.0009;-43.0397;
-60.1308;-40.8265;-70.8410;-81.5992;-71.6624;-52.1905;
-60.6627;-41.3353;-70.9912;-74.9451;-70.3048;-48.3435;
-61.7235;-45.6703;-69.9948;-79.3132;-71.3221;-49.1425;
-64.6476;-46.3324;-71.6002;-82.1787;-77.6587;-57.9034;
-64.6308;-46.4081;-72.2806;-74.8968;-74.0000;-55.4867;
-65.0155;-48.2206;-71.9872;-80.6890;-75.9827;-59.7407;
-70.0893;-49.3819;-76.4203;-84.8905;-81.6423;-60.3851;
-69.8712;-50.4474;-76.9165;-79.7087;-78.9499;-64.5840;
-70.5017;-54.2605;-77.3944;-81.4204;-81.2210;-80.6971;
-45.2493;-62.3233;-84.5749;-88.9627;-88.5595;-76.9739;
-45.9984;-62.0221;-83.7430;-83.9648;-86.2702;-88.3975;
-47.6705;-60.8419;-83.3781;-85.6062;-87.0136;12.6094;
-93.3302;-87.5189;-95.4876;-88.9494;-97.8442;-73.9516;
-56.8041;-98.0646;-99.5777;-96.9993;-97.8278;-30.4189;
-93.1606;-100.2655;-57.2667;-34.4049;-96.2163;44.9914;
-38.1735;32.7381;-99.6160;36.0533;-115.2646;-117.6182;
-40.7665;-39.4565;-91.6265;-19.9398;-117.6021;5.9749;
-39.9104;-58.1342;-92.4632;62.4030;-110.5712;110.2060;
-42.9589;158.8481;-105.3138;44.5704;-31.8556;-140.3850;
-6.5209;115.9869;-35.3168;-26.6578;-32.1594;129.4992;
-2.4693;54.1884;-41.4819;42.3637;-27.5316;80.1148;
46.9223;192.7667;-16.6933;-12.7960;-98.8513;-44.6130;
43.0550;29.9497;15.4407;22.3866;-13.6472;167.7256;
46.0514;27.8703;-1.5444;70.2011;-95.5109;80.9360;
-63.1782;97.7736;-18.6938;-77.5013;-37.3306;-127.7991;
-72.4717;22.3344;42.4691;66.7765;-42.8920;105.8917;
-70.4641;29.8664;24.9061;58.8388;-41.5708;61.0526;
3.5581;76.5493;-24.1524;69.9776;108.6035;-73.3077;
-1.7151;15.2334;73.6240;55.6800;101.3497;95.2244;
2.7409;21.4309;49.1284;41.6332;104.0931;30.8218;
34.9352;63.5525;-39.3925;61.5484;107.3394;-9.5477;
30.0064;9.9409;104.5037;90.4038;95.9808;89.9014;
35.2196;17.3556;80.4906;38.4865;98.6522;26.1447;
-57.8086;-40.6199;-72.6441;-85.2440;-68.3385;-48.8367;
-56.9363;-40.4055;-71.4197;-76.3568;-67.9991;-42.5739;
-59.7473;-41.3150;-70.5122;-81.3137;-66.3549;-42.7812;
-59.7815;-39.1757;-70.9915;-82.5532;-71.0337;-51.2871;
-59.6868;-42.8402;-70.5653;-75.9279;-69.3394;-47.4537;
-60.6340;-43.1609;-70.5434;-79.4111;-72.0482;-47.6209;
-62.1658;-42.5438;-72.6872;-83.0560;-72.9827;-53.6604;
-61.3357;-43.1750;-70.5188;-76.4929;-70.6606;-51.9631;
-62.5778;-47.9069;-70.6802;-81.4685;-74.2374;-51.4067;
-64.7504;-46.2201;-74.8817;-83.5859;-79.3038;-61.9359;
-64.9119;-47.5663;-73.6321;-78.0586;-73.9663;-58.3246;
-65.1982;-50.8078;-72.7678;-82.5624;-75.9991;-62.4901;
-72.8722;-51.5905;-79.1699;-85.6775;-81.3193;-67.0131;
-72.4136;-53.1353;-79.1450;-79.9135;-76.9663;-68.7733;
-71.7269;-56.1987;-78.7856;-83.8976;-79.6578;-82.8085;
-77.3675;-63.4512;-85.6392;-89.8934;-86.6442;-76.1640;
-77.1570;-60.9488;-84.0486;-82.5660;-83.9307;-86.4615;
-78.9174;-63.5915;-83.3892;-86.8522;-84.2702;-40.0120;
-90.0148;-76.8089;-92.0669;-96.8700;-93.8970;-87.2973;
-55.0019;-73.1840;-91.2547;-89.6060;-94.5413;-32.7288;
-53.6117;-71.2259;-88.1460;-93.2995;-93.2355;36.1825;
-95.9981;-97.3259;-100.7206;-27.5222;-108.1672;-85.5692;
-97.3084;-63.1985;-63.6081;-40.9526;-107.7796;-22.4572;
-96.4812;-13.5514;-75.4866;-17.5019;-102.8297;59.4728;
-71.1237;9.0141;-68.0068;19.5322;-43.7955;-88.4218;
-72.6023;-26.4825;-84.9051;-10.2698;-43.5245;8.7593;
-72.7138;-7.1943;-92.3579;45.6892;-40.1322;112.7274;
-49.9724;28.1756;-126.0348;32.9708;45.4018;-106.4109;
-53.0918;16.2139;-96.4625;32.5351;45.4037;49.9585;
-51.8741;17.8146;-56.0997;52.7466;44.1644;77.9638;
-56.9923;-40.7376;-71.3077;-84.6306;-68.3221;-49.7516;
-57.1592;-42.4494;-69.3839;-76.1866;-67.9836;-42.9412;
-57.4753;-43.3053;-68.6963;-81.3548;-69.3376;-42.7273;
-58.4383;-40.7831;-72.3315;-85.7972;-70.0356;-51.4847;
-58.1786;-41.8664;-70.6529;-77.2795;-67.9981;-45.9144;
-60.0163;-45.4064;-70.8691;-83.7133;-71.0356;-46.7248;
-60.2867;-44.4108;-71.9608;-85.9487;-73.6760;-54.4719;
-60.1568;-44.0223;-71.4349;-76.2322;-70.9827;-49.1430;
-62.6446;-45.9991;-71.1602;-82.5751;-72.3212;-49.4049;
-63.9386;-46.2967;-74.3278;-84.1002;-74.6278;-57.4866;
-63.8382;-47.6884;-73.5583;-77.3922;-72.9827;-53.0659;
-64.3211;-46.5221;-72.2355;-82.1670;-73.9827;-53.2242;
-66.6765;-48.0503;-76.7065;-86.7999;-77.9981;-62.8874;
-65.5091;-50.7709;-75.7378;-78.2579;-76.3057;-60.3788;
-67.1470;-51.7981;-75.3936;-85.4039;-76.9808;-61.7673;
-71.0934;-50.5374;-80.9125;-86.8437;-81.6760;-68.9231;
-70.8008;-53.1700;-79.6524;-80.2906;-78.9672;-67.2925;
-72.2567;-52.5564;-79.4474;-85.8172;-78.3722;-74.3767;
-76.6617;-58.6447;-85.3873;-87.6715;-85.9490;-73.1002;
-76.8516;-58.8045;-83.4911;-81.6279;-85.2355;-77.6996;
-77.7779;-59.2410;-83.4022;-84.1071;-87.2730;-70.7751;
